{"version":"1.0","truncation":null,"padding":null,"added_tokens":[{"id":0,"special":true,"content":"[PAD]","single_word":false,"lstrip":false,"rstrip":false,"normalized":false},{"id":1,"special":true,"content":"[UNK]","single_word":false,"lstrip":false,"rstrip":false,"normalized":false}],"normalizer":{"type":"Sequence","normalizers":[{"type":"NFD"},{"type":"BertNormalizer","clean_text":true,"handle_chinese_chars":true,"strip_accents":true,"lowercase":true}]},"pre_tokenizer":{"type":"Whitespace"},"post_processor":null,"decoder":null,"model":{"type":"BPE","dropout":null,"unk_token":"[UNK]","continuing_subword_prefix":null,"end_of_word_suffix":null,"fuse_unk":false,"vocab":{"[PAD]":0,"[UNK]":1,"!":2,"\"":3,"#":4,"$":5,"%":6,"&":7,"'":8,"(":9,")":10,"*":11,"+":12,",":13,"-":14,".":15,"/":16,"0":17,"1":18,"2":19,"3":20,"4":21,"5":22,"6":23,"7":24,"8":25,"9":26,":":27,";":28,"<":29,"=":30,">":31,"?":32,"@":33,"[":34,"\\":35,"]":36,"^":37,"_":38,"`":39,"a":40,"b":41,"c":42,"d":43,"e":44,"f":45,"g":46,"h":47,"i":48,"j":49,"k":50,"l":51,"m":52,"n":53,"o":54,"p":55,"q":56,"r":57,"s":58,"t":59,"u":60,"v":61,"w":62,"x":63,"y":64,"z":65,"{":66,"|":67,"}":68,"~":69,"¡":70,"¢":71,"£":72,"¤":73,"¥":74,"¦":75,"§":76,"¨":77,"©":78,"ª":79,"«":80,"®":81,"°":82,"±":83,"²":84,"³":85,"´":86,"·":87,"º":88,"»":89,"½":90,"¾":91,"¿":92,"ß":93,"æ":94,"ð":95,"ø":96,"þ":97,"ı":98,"˙":99,"а":100,"г":101,"д":102,"е":103,"и":104,"к":105,"м":106,"н":107,"о":108,"א":109,"ג":110,"ו":111,"י":112,"כ":113,"ל":114,"מ":115,"ן":116,"ר":117,"–":118,"‘":119,"’":120,"“":121,"”":122,"…":123,"″":124,"₤":125,"▼":126,"★":127,"♦":128,"、":129,"戒":130,"色":131,"！":132,"，":133,"ｃ":134,"ｋ":135,"ｏ":136,"ｒ":137,"th":138,"in":139,"the":140,"an":141,"er":142,"re":143,"is":144,"on":145,"en":146,"at":147,"to":148,"ou":149,"ing":150,"es":151,"al":152,"it":153,"as":154,"and":155,"or":156,"ar":157,"of":158,"ed":159,"il":160,"st":161,"ly":162,"ch":163,"br":164,"le":165,"se":166,"om":167,"/>":168,"be":169,"mo":170,"wh":171,"ac":172,"ic":173,"ve":174,"this":175,"no":176,"vi":177,"ad":178,"that":179,"ver":180,"lo":181,"li":182,"ut":183,"ent":184,"for":185,"he":186,"ter":187,"ay":188,"ion":189,"am":190,"im":191,"gh":192,"un":193,"was":194,"wi":195,"movi":196,"ro":197,"fil":198,"de":199,"/><":200,"film":201,"ke":202,"with":203,"ab":204,"el":205,"ho":206,"you":207,"one":208,"ri":209,"are":210,"ld":211,"movie":212,"ha":213,"but":214,"ge":215,"out":216,"su":217,"ir":218,"di":219,"go":220,"so":221,"pe":222,".<":223,"all":224,"ce":225,"ome":226,"do":227,"not":228,"ul":229,"po":230,"ally":231,"ther":232,"ts":233,"fe":234,"tor":235,"his":236,"ma":237,"sc":238,"ne":239,"com":240,"her":241,"tr":242,"od":243,"man":244,"ill":245,"us":246,"me":247,"ould":248,"..":249,"ur":250,"ap":251,"act":252,"ex":253,"have":254,"some":255,"ust":256,"fr":257,"who":258,"per":259,"pl":260,"ct":261,"ght":262,"est":263,"we":264,"con":265,"end":266,"if":267,"ess":268,"by":269,"very":270,"id":271,"thing":272,"they":273,"ain":274,"wor":275,"au":276,"like":277,"see":278,"how":279,"ere":280,"ant":281,"ag":282,"bo":283,"from":284,"ell":285,"ev":286,"ple":287,"tim":288,"te":289,"up":290,"qu":291,"ous":292,"ok":293,"there":294,"co":295,"pre":296,"art":297,"sh":298,"pro":299,"char":300,"just":301,"ation":302,"ack":303,"ast":304,"what":305,"oun":306,"ough":307,"my":308,"has":309,"way":310,"other":311,"ers":312,"about":313,"can":314,"ate":315,"ind":316,"atch":317,"any":318,"ig":319,"ive":320,"der":321,"good":322,"ard":323,"ment":324,"ist":325,"ol":326,"she":327,"more":328,"get":329,"acter":330,"now":331,"character":332,"tory":333,"when":334,"watch":335,"reat":336,"ine":337,"ure":338,"gr":339,"ich":340,"ong":341,"able":342,"jo":343,"ss":344,"would":345,"ity":346,"sp":347,"time":348,"even":349,"wn":350,"ak":351,"ame":352,"most":353,"ound":354,"gu":355,"our":356,"ite":357,"story":358,"ck":359,"ful":360,"um":361,"ty":362,"int":363,"wo":364,"which":365,"their":366,"af":367,"only":368,"well":369,"scen":370,"aw":371,"ci":372,"really":373,"ye":374,"its":375,"ight":376,"cl":377,"than":378,"show":379,"ble":380,"had":381,"lot":382,"bec":383,"uch":384,"cr":385,"pt":386,"him":387,"play":388,"were":389,"did":390,"sel":391,"ink":392,"pr":393,"ade":394,"fo":395,"ick":396,"ies":397,"don":398,"look":399,"does":400,"over":401,"great":402,"ie":403,"bad":404,"dis":405,"itt":406,"pp":407,"age":408,"ves":409,"bl":410,"bet":411,"fa":412,"off":413,"ep":414,"ence":415,"them":416,"ass":417,"will":418,"ars":419,"low":420,"ice":421,"much":422,"ause":423,"ish":424,"...":425,"every":426,"know":427,"fir":428,"could":429,"dire":430,"real":431,"peo":432,"been":433,"people":434,"into":435,"also":436,"mak":437,"first":438,"make":439,"ber":440,"ud":441,"because":442,"ort":443,"think":444,"fun":445,"du":446,"ser":447,"son":448,"dr":449,"ire":450,"ving":451,"ll":452,"ff":453,"then":454,"where":455,"ace":456,"made":457,"wr":458,"too":459,"after":460,"ew":461,"inter":462,"ide":463,"thr":464,"ile":465,"work":466,"mar":467,"self":468,"part":469,"ever":470,"movies":471,"str":472,"spe":473,"cre":474,"seem":475,"say":476,"ach":477,"des":478,"ps":479,"characters":480,"ated":481,"ang":482,"fl":483,"ical":484,"though":485,"love":486,"ious":487,"tain":488,"back":489,"actor":490,"ting":491,"hor":492,"view":493,"ren":494,"min":495,"films":496,"fin":497,"ans":498,"ny":499,"two":500,"many":501,"less":502,"plot":503,"day":504,"being":505,"never":506,"life":507,"your":508,"ance":509,"ary":510,"acting":511,"tal":512,"seen":513,"sho":514,"gi":515,"ces":516,"ta":517,"best":518,"here":519,"litt":520,"tur":521,"),":522,"ction":523,"little":524,"ens":525,"mat":526,"new":527,"ved":528,"ctor":529,"through":530,"try":531,"ree":532,"cent":533,"ef":534,").":535,"may":536,"igh":537,"mis":538,"ose":539,"sa":540,"kill":541,"iz":542,"che":543,"19":544,"fri":545,"amer":546,"fore":547,"while":548,"ually":549,"gen":550,"point":551,"car":552,"better":553,"ict":554,"ra":555,"ven":556,"ot":557,"sur":558,"--":559,"ily":560,"under":561,"scene":562,"ry":563,"still":564,"mon":565,"tru":566,"find":567,"ning":568,"perfor":569,"should":570,"augh":571,"these":572,"par":573,"won":574,"want":575,"again":576,"old":577,"cho":578,"why":579,"!!":580,"ase":581,"ild":582,"scenes":583,"et":584,"les":585,"ertain":586,"feel":587,"ought":588,"cast":589,"read":590,"something":591,"interest":592,"stand":593,"ph":594,"sim":595,"happ":596,"director":597,"friend":598,"10":599,"sto":600,"ath":601,"tri":602,"such":603,"ste":604,"beli":605,"ror":606,"op":607,"irl":608,"az":609,"vers":610,"ense":611,"action":612,"girl":613,"scre":614,"ins":615,"ably":616,"ise":617,"ian":618,"turn":619,"fam":620,"wom":621,"those":622,"war":623,"ating":624,"guy":625,"funny":626,"down":627,"joy":628,"long":629,"ob":630,"red":631,"performan":632,"ason":633,"pret":634,"mus":635,"tak":636,"star":637,"got":638,"watching":639,"comm":640,"actors":641,"doesn":642,"arly":643,"ip":644,"ents":645,"big":646,"didn":647,"comed":648,"ash":649,"years":650,"em":651,"av":652,"ave":653,"another":654,"own":655,"times":656,"pos":657,"going":658,"mem":659,"bu":660,"att":661,"set":662,"makes":663,"ng":664,"before":665,"nothing":666,"actually":667,"produ":668,"high":669,"enjoy":670,"young":671,"gl":672,"ways":673,"bit":674,"inal":675,"ater":676,"put":677,"world":678,"sm":679,"ial":680,"same":681,"hu":682,"fect":683,"sub":684,"few":685,"right":686,"ions":687,"cle":688,"je":689,"diff":690,"laugh":691,"exc":692,"orig":693,"king":694,"far":695,"let":696,"illi":697,"cts":698,"vis":699,"wood":700,"horror":701,"ute":702,"hard":703,"**":704,"ner":705,"ted":706,"icul":707,"screen":708,"come":709,"comes":710,"ks":711,"por":712,"comple":713,"cor":714,"appe":715,"bor":716,"sing":717,"pect":718,"sin":719,"light":720,"things":721,"person":722,"ual":723,"ster":724,"quite":725,"kid":726,"fact":727,"thought":728,"inv":729,"pretty":730,"col":731,"ten":732,"ween":733,"around":734,"americ":735,"hel":736,"seems":737,"take":738,"cial":739,"ript":740,"mind":741,"writ":742,"ress":743,"give":744,"original":745,"sex":746,"aren":747,"howe":748,"sure":749,"need":750,"however":751,"enough":752,"rel":753,"kind":754,"beg":755,"both":756,"bas":757,"wonder":758,"tell":759,"cept":760,"saw":761,"ically":762,"cont":763,"must":764,"fort":765,"ody":766,"aut":767,"main":768,"ward":769,"boy":770,"interesting":771,"add":772,"worth":773,"lead":774,"ia":775,"care":776,"vel":777,"hand":778,"cour":779,"comedy":780,"between":781,"ations":782,"script":783,"pa":784,"class":785,"call":786,"ately":787,"used":788,"mom":789,"music":790,"gets":791,"clo":792,"ness":793,"ced":794,"ending":795,"series":796,"press":797,"expect":798,"form":799,"bar":800,"sequ":801,"without":802,"line":803,"row":804,"ale":805,"role":806,"child":807,"done":808,"head":809,"reason":810,"vious":811,"ger":812,"isn":813,"cess":814,"last":815,"cine":816,"always":817,"coun":818,"whole":819,"pol":820,"val":821,"differ":822,"\",":823,"utes":824,"wer":825,"led":826,"beaut":827,"app":828,"almost":829,"ue":830,"least":831,"grap":832,"night":833,"start":834,"sound":835,"pres":836,"run":837,"cap":838,"away":839,"hy":840,"might":841,"alo":842,"lin":843,"ings":844,"use":845,"vo":846,"making":847,"spo":848,"tem":849,"men":850,"complete":851,"tv":852,"mas":853,"minutes":854,"book":855,"ane":856,"nor":857,"comp":858,"prob":859,"ug":860,"hn":861,"rible":862,"ms":863,"land":864,"mot":865,"since":866,"ying":867,"family":868,"stu":869,"audi":870,"lly":871,"tw":872,"00":873,"sol":874,"yes":875,"cond":876,"anything":877,"pie":878,"hal":879,"entertain":880,"med":881,"yet":882,"tit":883,"pris":884,"eve":885,"fol":886,"ible":887,"performance":888,"na":889,"woman":890,"peri":891,"ouse":892,"espe":893,"mean":894,"blo":895,"probably":896,"sy":897,"bre":898,"john":899,"ange":900,"poss":901,"found":902,"played":903,"har":904,"dram":905,"uring":906,"poor":907,"cially":908,"ons":909,"fi":910,"place":911,"ked":912,"mur":913,"ature":914,"hum":915,"ional":916,"ult":917,"\".":918,"top":919,"iful":920,"rather":921,"unt":922,"oney":923,"dialo":924,"den":925,"worst":926,"anyone":927,"ark":928,"cur":929,"each":930,"bud":931,"cli":932,"ign":933,"keep":934,"cut":935,"ments":936,"different":937,"happen":938,"having":939,"sid":940,"ext":941,"sl":942,"mer":943,"ative":944,"looking":945,"especially":946,"dv":947,"ft":948,"rest":949,"wal":950,"body":951,"trying":952,"cu":953,"believe":954,".\"":955,"second":956,"side":957,"cid":958,"house":959,"dvd":960,"black":961,"course":962,"although":963,"beautiful":964,"vin":965,"direct":966,"amp":967,"creat":968,"goes":969,"mor":970,"miss":971,"plays":972,"help":973,"pict":974,"american":975,"fan":976,"istic":977,"sense":978,"ither":979,"ca":980,"gether":981,"job":982,"together":983,"maybe":984,"certain":985,"chr":986,"ingly":987,"shows":988,"three":989,"fects":990,"dead":991,"everything":992,"plo":993,"ni":994,"ton":995,"epis":996,"commend":997,"proble":998,"fall":999,"human":1000,"stead":1001,"once":1002,"father":1003,"sup":1004,"mi":1005,"death":1006,"fully":1007,"money":1008,"ond":1009,"half":1010,"year":1011,"vide":1012,"special":1013,"posed":1014,"effects":1015,"member":1016,"usu":1017,"ics":1018,"super":1019,"someone":1020,"looks":1021,"imp":1022,"ates":1023,"rom":1024,"imag":1025,"ank":1026,"sit":1027,"wasn":1028,"recommend":1029,"true":1030,"word":1031,"reg":1032,"vor":1033,"wa":1034,"ilar":1035,"perfect":1036,"everyone":1037,"lu":1038,"others":1039,"follow":1040,"gener":1041,"vid":1042,"sty":1043,"rele":1044,"anim":1045,"pul":1046,"takes":1047,"ear":1048,"ross":1049,"....":1050,"understand":1051,"iting":1052,"bly":1053,"obvious":1054,"during":1055,"ele":1056,"plain":1057,"spect":1058,"nice":1059,"instead":1060,"watched":1061,"said":1062,"ney":1063,"que":1064,"ship":1065,"ants":1066,"cou":1067,"ality":1068,"rid":1069,"cal":1070,"gue":1071,"hour":1072,"ling":1073,"short":1074,"shot":1075,"camer":1076,"la":1077,"sk":1078,"excell":1079,"later":1080,"piece":1081,"wife":1082,"dan":1083,"ru":1084,"else":1085,"audience":1086,"ences":1087,"review":1088,"simp":1089,"ore":1090,"itch":1091,"cer":1092,"hero":1093,"fel":1094,"incl":1095,"ames":1096,"bur":1097,"begin":1098,"cy":1099,"io":1100,"ism":1101,"da":1102,"fre":1103,"himself":1104,"excellent":1105,"left":1106,"llywood":1107,"seeing":1108,"sil":1109,"fer":1110,"tray":1111,"als":1112,"face":1113,"log":1114,"invol":1115,"defin":1116,"came":1117,"serious":1118,"home":1119,"idea":1120,"eas":1121,"version":1122,"stup":1123,"ned":1124,"ired":1125,"heart":1126,"ited":1127,"xt":1128,"ists":1129,"entire":1130,"fortun":1131,"sci":1132,"stupid":1133,"along":1134,"budget":1135,"friends":1136,"production":1137,"simply":1138,"scho":1139,"mother":1140,"using":1141,"air":1142,"ah":1143,"ject":1144,"sat":1145,"sad":1146,"dou":1147,"picture":1148,"school":1149,"fair":1150,"ition":1151,"completely":1152,"video":1153,"0s":1154,"open":1155,"attem":1156,"ters":1157,"disap":1158,"lack":1159,"pass":1160,"suc":1161,"remember":1162,"ends":1163,"cing":1164,"believ":1165,"dri":1166,"wrong":1167,"hollywood":1168,"given":1169,"ones":1170,"win":1171,"boring":1172,"full":1173,"viol":1174,"women":1175,"band":1176,"dark":1177,"disappoint":1178,"mess":1179,"fight":1180,"absol":1181,"portray":1182,"tic":1183,"cover":1184,"typ":1185,"power":1186,"except":1187,"camera":1188,"either":1189,"cop":1190,"ared":1191,"eng":1192,"absolute":1193,"kids":1194,"cus":1195,"performances":1196,"pport":1197,"ird":1198,"supposed":1199,"song":1200,"tom":1201,"small":1202,"surpris":1203,"hope":1204,"until":1205,"num":1206,"couple":1207,"next":1208,"amaz":1209,"tra":1210,"name":1211,"murder":1212,"vic":1213,"consid":1214,"sul":1215,"awful":1216,"gg":1217,"classic":1218,"pri":1219,"die":1220,"mid":1221,"case":1222,"emot":1223,"cas":1224,"gar":1225,"ley":1226,"fail":1227,"jack":1228,"flick":1229,"sever":1230,"getting":1231,"omb":1232,"truly":1233,"humor":1234,"vent":1235,"ries":1236,"consider":1237,"ator":1238,"dre":1239,"graphy":1240,"particul":1241,"itten":1242,"ities":1243,"haps":1244,"god":1245,"present":1246,"bert":1247,"bro":1248,"definite":1249,"velo":1250,"lig":1251,"oh":1252,"perhaps":1253,"ready":1254,"favor":1255,"exam":1256,"playing":1257,"moments":1258,"live":1259,"mr":1260,"lines":1261,"pain":1262,"terrible":1263,"feature":1264,"deser":1265,"male":1266,"quest":1267,"sort":1268,"drama":1269,"style":1270,"develo":1271,"itself":1272,"includ":1273,"experi":1274,"teen":1275,"bb":1276,"ring":1277,"ler":1278,"room":1279,"town":1280,"slow":1281,"ming":1282,"coming":1283,"uni":1284,"talent":1285,"tern":1286,"doing":1287,"stars":1288,"ital":1289,"master":1290,"dist":1291,"wonderful":1292,"written":1293,"iness":1294,"leg":1295,",\"":1296,"often":1297,"plan":1298,"oc":1299,"guess":1300,"mich":1301,"definitely":1302,"gives":1303,"mention":1304,"break":1305,"ode":1306,"appear":1307,"crim":1308,"dialogue":1309,"ility":1310,"unfortun":1311,"loved":1312,"ali":1313,"turns":1314,"fant":1315,"children":1316,"unch":1317,"aged":1318,"went":1319,"early":1320,"liked":1321,"actress":1322,"title":1323,"dy":1324,"brilli":1325,"strong":1326,"ages":1327,"cinemat":1328,"deli":1329,"known":1330,"ize":1331,"entertaining":1332,"lost":1333,"couldn":1334,"sor":1335,"ased":1336,"hon":1337,"desp":1338,"extre":1339,"mag":1340,"tly":1341,"bus":1342,"key":1343,"episode":1344,"conf":1345,"fac":1346,"direction":1347,"ese":1348,"pu":1349,"os":1350,"thrill":1351,"certainly":1352,"become":1353,"ground":1354,"pred":1355,"impress":1356,"gun":1357,"gre":1358,"cinema":1359,"felt":1360,"spir":1361,"pat":1362,"based":1363,"called":1364,"absolutely":1365,"ended":1366,"spoil":1367,"sha":1368,"indi":1369,"possible":1370,"develop":1371,"ann":1372,"finally":1373,"mal":1374,"dep":1375,"vill":1376,"credi":1377,"game":1378,"nam":1379,"lie":1380,"track":1381,"psy":1382,"close":1383,"guys":1384,"several":1385,"overall":1386,"worse":1387,"relation":1388,"problem":1389,"blood":1390,"extreme":1391,"list":1392,"genre":1393,"sou":1394,"ju":1395,"fans":1396,"cred":1397,"evil":1398,"against":1399,"white":1400,"mentary":1401,"mark":1402,"lear":1403,"brilliant":1404,"beginning":1405,"pur":1406,"hold":1407,"days":1408,"tries":1409,"arch":1410,"rus":1411,"tot":1412,"gor":1413,"lives":1414,"waste":1415,"selves":1416,"van":1417,"susp":1418,"fine":1419,"hop":1420,"myster":1421,"type":1422,"grou":1423,"wanted":1424,"effect":1425,"success":1426,"ention":1427,"jor":1428,"final":1429,"totally":1430,"attempt":1431,"ues":1432,"ball":1433,"seemed":1434,"despite":1435,"writer":1436,"killer":1437,"memor":1438,"daugh":1439,"prom":1440,"ith":1441,"ized":1442,"colle":1443,"touch":1444,"ben":1445,"si":1446,"christ":1447,"bi":1448,"throughout":1449,"nat":1450,"lea":1451,"explo":1452,"prof":1453,"sum":1454,"engl":1455,"unfortunately":1456,"becomes":1457,"already":1458,"sis":1459,"deal":1460,"city":1461,"past":1462,"ret":1463,"history":1464,"bin":1465,"lar":1466,"support":1467,"decid":1468,"quality":1469,"works":1470,"hind":1471,"allow":1472,"aring":1473,"ures":1474,"ael":1475,"import":1476,"crit":1477,"hell":1478,"ier":1479,"stuff":1480,"wish":1481,"ams":1482,"ding":1483,"sw":1484,"gy":1485,"docu":1486,"bed":1487,"unk":1488,"writing":1489,"adm":1490,"bal":1491,"parts":1492,"horrible":1493,"vision":1494,"tech":1495,"anno":1496,"today":1497,"stay":1498,"wants":1499,"ude":1500,"ific":1501,"killed":1502,"example":1503,"ull":1504,").<":1505,"iv":1506,"matter":1507,"200":1508,"foot":1509,"wise":1510,"din":1511,"!<":1512,"hilar":1513,"rif":1514,"usual":1515,"soon":1516,"pick":1517,"michael":1518,"hit":1519,"speak":1520,"convin":1521,"lad":1522,"mad":1523,"non":1524,"none":1525,"viewer":1526,"level":1527,"ek":1528,"contin":1529,"rating":1530,"situ":1531,"sle":1532,"mc":1533,"etc":1534,"stop":1535,"pho":1536,"daughter":1537,"chang":1538,"amazing":1539,"ris":1540,"atic":1541,"ago":1542,"mil":1543,"police":1544,"apparen":1545,"hus":1546,"girls":1547,"group":1548,"enjoyed":1549,"directed":1550,"ors":1551,"antic":1552,"starts":1553,"themselves":1554,"late":1555,"pay":1556,"decent":1557,"??":1558,"rock":1559,"cult":1560,"novel":1561,"intel":1562,"exact":1563,"und":1564,"aim":1565,"score":1566,"behind":1567,"wes":1568,"ket":1569,"eyes":1570,"fig":1571,"hot":1572,"gave":1573,"oid":1574,"favorite":1575,"looked":1576,"major":1577,"var":1578,"dog":1579,"rent":1580,"ried":1581,"ery":1582,"anger":1583,"roll":1584,"vil":1585,"cool":1586,"thinking":1587,"trans":1588,"lim":1589,"fron":1590,"oper":1591,"obviously":1592,"stud":1593,"sometimes":1594,"moment":1595,"pose":1596,"four":1597,"del":1598,"swe":1599,"event":1600,"sequel":1601,"hilarious":1602,"believable":1603,"tent":1604,"myself":1605,"cost":1606,"violence":1607,"scar":1608,"gn":1609,"heard":1610,"dam":1611,"incredi":1612,"predict":1613,"antly":1614,"husband":1615,"tail":1616,"iculous":1617,"vol":1618,"law":1619,"says":1620,"soci":1621,"arr":1622,"dum":1623,"order":1624,"brit":1625,"lan":1626,"strange":1627,"sent":1628,"tele":1629,"experience":1630,"took":1631,"highly":1632,"explain":1633,"shock":1634,"ail":1635,"stories":1636,"move":1637,"clear":1638,"bring":1639,"ident":1640,"feeling":1641,"happens":1642,"ker":1643,"honest":1644,"voice":1645,"mart":1646,"taking":1647,"desc":1648,"appro":1649,"anyway":1650,"gang":1651,"extremely":1652,"forget":1653,"ridiculous":1654,"cinemato":1655,"happened":1656,"lou":1657,"told":1658,"ished":1659,"step":1660,"polit":1661,"david":1662,"living":1663,"ards":1664,"turned":1665,"leave":1666,"sym":1667,"fut":1668,"rench":1669,"deep":1670,"frank":1671,"wouldn":1672,"involved":1673,"abo":1674,"cheap":1675,"roles":1676,"gore":1677,"willi":1678,"check":1679,"brother":1680,"whe":1681,"graph":1682,"paren":1683,"uses":1684,"weak":1685,"makers":1686,"quick":1687,"taken":1688,"resul":1689,"ys":1690,"including":1691,"dle":1692,"change":1693,"ured":1694,"crap":1695,"country":1696,"jok":1697,"rip":1698,"ches":1699,"capt":1700,"fly":1701,"wit":1702,"save":1703,"opin":1704,"bel":1705,"dies":1706,"simple":1707,"astic":1708,"free":1709,"stra":1710,"robert":1711,"ky":1712,".)":1713,"natur":1714,"pleas":1715,"hen":1716,"recent":1717,"chance":1718,"bers":1719,"james":1720,"inst":1721,"build":1722,"please":1723,"box":1724,"expected":1725,"moder":1726,"across":1727,"doub":1728,"ban":1729,"realistic":1730,"wards":1731,"happy":1732,"pped":1733,"typical":1734,"fire":1735,"eld":1736,"particularly":1737,"itive":1738,"ung":1739,"usually":1740,"ats":1741,"cannot":1742,"bot":1743,"stru":1744,"hours":1745,"stree":1746,"lik":1747,"zomb":1748,"career":1749,"annoying":1750,"20":1751,"ints":1752,"vir":1753,"jud":1754,"ford":1755,"avoid":1756,"dro":1757,"sam":1758,"words":1759,"bey":1760,"ham":1761,"huge":1762,"dec":1763,"ering":1764,"english":1765,"reality":1766,"important":1767,"exactly":1768,"res":1769,"suff":1770,"rated":1771,"acted":1772,"preci":1773,"sn":1774,"near":1775,"batt":1776,"straight":1777,"seriously":1778,"plac":1779,"documentary":1780,"talk":1781,"similar":1782,"relationship":1783,"oo":1784,"suspense":1785,"alone":1786,"tre":1787,"fast":1788,"ral":1789,"bab":1790,"apart":1791,"photo":1792,"number":1793,"shown":1794,"197":1795,"running":1796,"released":1797,"treat":1798,"sen":1799,"lee":1800,"villain":1801,"geor":1802,"ational":1803,"earth":1804,"thor":1805,"ances":1806,"female":1807,"secre":1808,"local":1809,"opening":1810,"jokes":1811,"among":1812,"dialog":1813,"whose":1814,"mist":1815,"camp":1816,"ake":1817,"dest":1818,"middle":1819,"roy":1820,"grand":1821,"modern":1822,"fur":1823,"space":1824,"musical":1825,"!!!":1826,"scary":1827,"ently":1828,"eye":1829,"train":1830,"publ":1831,"enty":1832,"shots":1833,"198":1834,"...<":1835,"saying":1836,"azy":1837,"ls":1838,"cinematography":1839,"yor":1840,"possi":1841,"lit":1842,"ow":1843,"ze":1844,"agon":1845,"silly":1846,"yourself":1847,"learn":1848,"chard":1849,"sch":1850,"omin":1851,"somewhat":1852,"ied":1853,"mostly":1854,"opinion":1855,"gold":1856,"basically":1857,"stick":1858,"shi":1859,"finds":1860,"ref":1861,"loc":1862,"ili":1863,"western":1864,"hear":1865,"appears":1866,"hom":1867,"apparently":1868,"started":1869,"rich":1870,"tle":1871,"rad":1872,"attention":1873,"itting":1874,"ump":1875,"team":1876,"plic":1877,"sets":1878,"bing":1879,"disappointed":1880,"giving":1881,"odd":1882,"mee":1883,"single":1884,"front":1885,"beyond":1886,"****":1887,"predictable":1888,"due":1889,"bs":1890,"french":1891,"suck":1892,"ush":1893,"ina":1894,"sold":1895,"talking":1896,"thetic":1897,"comment":1898,"richard":1899,"respect":1900,"equ":1901,"detail":1902,"pping":1903,"survi":1904,"water":1905,"net":1906,"thriller":1907,"knew":1908,"knows":1909,"intellig":1910,"cru":1911,"lies":1912,"popul":1913,"search":1914,"sign":1915,"remind":1916,"pac":1917,"famous":1918,"question":1919,"sequence":1920,"lor":1921,"han":1922,"parents":1923,"flo":1924,"clearly":1925,"season":1926,"path":1927,"hate":1928,"beat":1929,"problems":1930,"post":1931,"drug":1932,"gay":1933,"future":1934,"upon":1935,"aver":1936,"ken":1937,"ony":1938,"utter":1939,"state":1940,"fest":1941,"!\"":1942,"easy":1943,"stage":1944,"sequences":1945,"eu":1946,"exist":1947,"199":1948,"british":1949,"imagin":1950,"ered":1951,"twist":1952,"attack":1953,"falls":1954,"usion":1955,"tect":1956,"atmo":1957,"sexual":1958,"necess":1959,"events":1960,"andy":1961,"bill":1962,"tells":1963,"cident":1964,"romantic":1965,"hood":1966,"flash":1967,"jap":1968,"atmosp":1969,"prison":1970,"intro":1971,"prise":1972,"const":1973,"comic":1974,"carto":1975,"throw":1976,"previous":1977,"vice":1978,"television":1979,"ask":1980,"effort":1981,"erial":1982,"appreci":1983,"ability":1984,"truth":1985,"entertainment":1986,"trou":1987,"episod":1988,"lots":1989,"george":1990,"named":1991,"above":1992,"issu":1993,"hi":1994,"aught":1995,"kept":1996,"ino":1997,"moving":1998,"concer":1999,"theat":2000,"japan":2001,"tar":2002,"easily":2003,"unlike":2004,"bul":2005,"haven":2006,"points":2007,"personal":2008,"working":2009,"port":2010,"max":2011,"ised":2012,"psycho":2013,"eless":2014,"subject":2015,"bes":2016,"telling":2017,"dream":2018,"ief":2019,"dull":2020,"pen":2021,"within":2022,"paul":2023,"setting":2024,"pal":2025,"five":2026,"victim":2027,"difficul":2028,"uck":2029,"enjoyable":2030,"cat":2031,"ses":2032,"filmed":2033,"bunch":2034,"mise":2035,"storyline":2036,"arely":2037,"agree":2038,"narr":2039,"period":2040,"gone":2041,"flaw":2042,"tale":2043,"ost":2044,"creep":2045,"material":2046,"general":2047,"gan":2048,"york":2049,"public":2050,"doubt":2051,"round":2052,"supporting":2053,"wait":2054,"deed":2055,"advent":2056,"claim":2057,"soundtrack":2058,"ceed":2059,"peter":2060,"episodes":2061,"ultim":2062,"crime":2063,"kick":2064,"message":2065,"hol":2066,"slight":2067,"sorry":2068,"ii":2069,"whether":2070,"rap":2071,"profess":2072,"inno":2073,"mix":2074,"release":2075,"prin":2076,"ba":2077,"count":2078,"mystery":2079,"theme":2080,"field":2081,"monster":2082,"pathetic":2083,"large":2084,"surprised":2085,"songs":2086,"repe":2087,"ension":2088,"50":2089,"elements":2090,"bat":2091,"dden":2092,"note":2093,"aid":2094,"sun":2095,"visual":2096,"sugg":2097,"teach":2098,"buy":2099,"met":2100,"tried":2101,"ged":2102,"els":2103,"minute":2104,"america":2105,"rown":2106,"resp":2107,"brain":2108,"lady":2109,"needs":2110,"attr":2111,"begins":2112,"express":2113,"third":2114,"iction":2115,"chris":2116,"viewing":2117,"showing":2118,"viewers":2119,"sister":2120,"30":2121,"forward":2122,"hun":2123,"lat":2124,"business":2125,"jer":2126,"zz":2127,"shoo":2128,"dramatic":2129,"afr":2130,"acy":2131,"reve":2132,"lect":2133,"theater":2134,"?<":2135,"comments":2136,"ution":2137,"match":2138,"conne":2139,"ray":2140,"feels":2141,"pet":2142,"means":2143,"okay":2144,"lon":2145,"doctor":2146,"mary":2147,"mass":2148,"medi":2149,"ety":2150,"',":2151,"contain":2152,"studi":2153,"leads":2154,"difficult":2155,"contro":2156,"meaning":2157,"grow":2158,"ially":2159,"ives":2160,"exe":2161,"writers":2162,"nearly":2163,"asy":2164,"sudden":2165,"brought":2166,"joe":2167,"natural":2168,"herself":2169,"potent":2170,"otic":2171,"paris":2172,"editing":2173,"boys":2174,"adap":2175,"mach":2176,"killing":2177,"actual":2178,"decided":2179,"ott":2180,"introdu":2181,"accept":2182,"fantastic":2183,"catch":2184,"!!!!":2185,"ously":2186,"crew":2187,"somehow":2188,"flu":2189,"wil":2190,"sed":2191,"imagine":2192,"pts":2193,"chees":2194,"cin":2195,"fit":2196,"aust":2197,"lier":2198,"average":2199,"fran":2200,"ights":2201,"kills":2202,"reviews":2203,"stere":2204,"rac":2205,"vamp":2206,"bil":2207,"jim":2208,"stereo":2209,"hur":2210,"forced":2211,"pure":2212,"shame":2213,"ula":2214,"surprise":2215,"ening":2216,"figure":2217,"ury":2218,"background":2219,"deliver":2220,"secret":2221,"fresh":2222,"possibly":2223,"descri":2224,"whatever":2225,"luck":2226,"ular":2227,"san":2228,"mel":2229,"rate":2230,"lock":2231,"lame":2232,"berg":2233,"commun":2234,"demon":2235,"board":2236,"!)":2237,"premise":2238,"battle":2239,"liter":2240,"greatest":2241,"ders":2242,"fas":2243,"clever":2244,"oscar":2245,"refer":2246,"phil":2247,"poorly":2248,"rific":2249,"indeed":2250,"street":2251,"ga":2252,"hair":2253,"heav":2254,"eventually":2255,"ines":2256,"island":2257,"pan":2258,"weird":2259,"gest":2260,"db":2261,"thy":2262,"german":2263,"baby":2264,"cir":2265,"ran":2266,"society":2267,"focus":2268,"animation":2269,"atmosphere":2270,"?\"":2271,"standing":2272,"accent":2273,"interested":2274,"plus":2275,"ka":2276,"reading":2277,"sal":2278,"sens":2279,"convincing":2280,"ched":2281,"situation":2282,"contr":2283,"stal":2284,"venge":2285,"wall":2286,"/>\"":2287,"effective":2288,"otherwise":2289,"nature":2290,"leaves":2291,"era":2292,"romance":2293,"week":2294,"discover":2295,"trave":2296,"leading":2297,"bored":2298,"reco":2299,"amoun":2300,"anna":2301,"force":2302,"imdb":2303,"logical":2304,"particular":2305,"stun":2306,"rit":2307,"worked":2308,"memorable":2309,"cons":2310,"ging":2311,"terror":2312,"ko":2313,"len":2314,"total":2315,"aging":2316,"became":2317,"emotional":2318,"write":2319,"appeal":2320,"sick":2321,"footage":2322,"further":2323,"cul":2324,"screenplay":2325,"offic":2326,"alien":2327,"ghost":2328,"credits":2329,"dance":2330,"meet":2331,"strug":2332,"needed":2333,"cheesy":2334,"apped":2335,"mentioned":2336,"dress":2337,"hands":2338,"jour":2339,"towards":2340,"dem":2341,"ica":2342,"concl":2343,"dim":2344,"earlier":2345,"80":2346,"sleep":2347,"ped":2348,"ugh":2349,"thank":2350,"result":2351,"stri":2352,"whom":2353,"features":2354,"euro":2355,"wol":2356,"unless":2357,"mes":2358,"ub":2359,"copy":2360,"unique":2361,"perfectly":2362,"exper":2363,"flat":2364,"vampire":2365,"emp":2366,"iment":2367,"laughs":2368,"distur":2369,"gri":2370,"powerful":2371,"doll":2372,"popular":2373,"william":2374,"ager":2375,"cross":2376,"'.":2377,"histor":2378,"regard":2379,"fu":2380,"gotten":2381,"road":2382,"satis":2383,"quickly":2384,"milli":2385,"smo":2386,"keeps":2387,"rand":2388,"execut":2389,"suggest":2390,"cape":2391,"tori":2392,"meant":2393,"fairly":2394,"ghts":2395,"ians":2396,"emotion":2397,"badly":2398,"recogn":2399,"cock":2400,"crazy":2401,"cers":2402,"neg":2403,"ana":2404,"older":2405,"masterpiece":2406,"idi":2407,"aked":2408,"famili":2409,"ising":2410,"dumb":2411,"thus":2412,"dow":2413,"girlfriend":2414,"superb":2415,"various":2416,"196":2417,"meets":2418,"familiar":2419,"imm":2420,"hill":2421,"insp":2422,"anti":2423,"company":2424,"bru":2425,"cry":2426,"embar":2427,"store":2428,"fat":2429,"trash":2430,"drag":2431,"directing":2432,"scott":2433,"realize":2434,"development":2435,"occas":2436,"revol":2437,"ths":2438,"color":2439,"fighting":2440,"sounds":2441,"cute":2442,"tes":2443,"create":2444,"inside":2445,"invest":2446,"acts":2447,"scient":2448,"brothers":2449,"cro":2450,"japanese":2451,"science":2452,"prim":2453,"beauty":2454,"fred":2455,"ient":2456,"ric":2457,"incredibly":2458,"party":2459,"plenty":2460,"former":2461,"spirit":2462,"langu":2463,"disney":2464,"concept":2465,"\")":2466,"social":2467,"brings":2468,"table":2469,"cartoon":2470,"directors":2471,"sweet":2472,"test":2473,"iel":2474,"married":2475,"ron":2476,"ares":2477,"outside":2478,"ges":2479,"nud":2480,"political":2481,"necessary":2482,"members":2483,"fear":2484,"missing":2485,"green":2486,"ival":2487,"escape":2488,"joke":2489,"reasons":2490,"ices":2491,"talented":2492,"created":2493,"design":2494,"wild":2495,"ides":2496,"ius":2497,"gover":2498,"wers":2499,"filled":2500,"manages":2501,"angel":2502,"casting":2503,"chann":2504,"sem":2505,"recor":2506,"admit":2507,"creepy":2508,"?)":2509,"lid":2510,"reveal":2511,"died":2512,"mac":2513,"ti":2514,"door":2515,"remake":2516,"portrayed":2517,"contri":2518,"return":2519,"ideas":2520,"extra":2521,"allen":2522,"itted":2523,"wasted":2524,"194":2525,"arri":2526,"ague":2527,"nic":2528,"(\"":2529,"ki":2530,"15":2531,"detect":2532,"cold":2533,"sell":2534,"laughing":2535,"awn":2536,"trail":2537,"actions":2538,"fails":2539,"squ":2540,"deserves":2541,"common":2542,"sand":2543,"wind":2544,"caught":2545,"following":2546,"sar":2547,"spent":2548,"fantasy":2549,"biz":2550,"logy":2551,"lyn":2552,"project":2553,"desper":2554,"accur":2555,"broad":2556,"potential":2557,"mou":2558,"ordin":2559,"amount":2560,"nudity":2561,"spoilers":2562,"aste":2563,"shad":2564,"produced":2565,"danger":2566,"expecting":2567,"office":2568,"zombie":2569,"iff":2570,"italian":2571,"filmmakers":2572,"hitch":2573,"193":2574,"phys":2575,"aster":2576,"chase":2577,"accident":2578,"pace":2579,"gress":2580,"za":2581,"hardly":2582,"craf":2583,"active":2584,"pack":2585,"stre":2586,"def":2587,"suit":2588,"adapt":2589,"intri":2590,"rass":2591,"reach":2592,"rick":2593,"recently":2594,"itation":2595,"spl":2596,"90":2597,"subtle":2598,"nie":2599,"worthy":2600,"credit":2601,"ram":2602,"violent":2603,"positive":2604,"ded":2605,"sess":2606,"pse":2607,"ax":2608,"rote":2609,"missed":2610,"draw":2611,"relig":2612,"shar":2613,"grant":2614,"ships":2615,"dar":2616,"west":2617,"attempts":2618,"fash":2619,"national":2620,"195":2621,"vant":2622,"remo":2623,"fascin":2624,"sher":2625,"embarrass":2626,"neither":2627,"waiting":2628,"trouble":2629,"nu":2630,"wrote":2631,"ined":2632,"esome":2633,"pointless":2634,"mere":2635,"genu":2636,"slightly":2637,"inform":2638,"exciting":2639,"six":2640,"bomb":2641,"kar":2642,"mir":2643,"compe":2644,"complex":2645,"value":2646,"immedi":2647,"europe":2648,"intelligent":2649,"harry":2650,"walk":2651,"hang":2652,"xic":2653,"rup":2654,"considering":2655,"funni":2656,"culture":2657,"genuine":2658,"requ":2659,"language":2660,"cted":2661,"onic":2662,"cause":2663,"maker":2664,"bob":2665,"choice":2666,"tough":2667,"minor":2668,"cide":2669,"approach":2670,"suddenly":2671,"bust":2672,"sters":2673,"bility":2674,"fiction":2675,"comput":2676,"ns":2677,"entirely":2678,"successful":2679,"bond":2680,"sadly":2681,"scream":2682,"mission":2683,"eli":2684,"rece":2685,"glad":2686,"blow":2687,"century":2688,"ory":2689,"hey":2690,"normal":2691,"combin":2692,"tort":2693,"born":2694,"rey":2695,"bother":2696,"hid":2697,"bizar":2698,"ald":2699,"impressive":2700,"depend":2701,"solid":2702,"elling":2703,"crow":2704,"decides":2705,"ples":2706,"inspired":2707,"dir":2708,"college":2709,"asher":2710,"ises":2711,"gust":2712,"compared":2713,"follows":2714,"ero":2715,"counter":2716,"deem":2717,"producers":2718,"rain":2719,"wed":2720,"cam":2721,"types":2722,"thanks":2723,"blue":2724,"portrayal":2725,"tension":2726,"lets":2727,"pieces":2728,"spot":2729,"jump":2730,"base":2731,"smart":2732,"brut":2733,"sees":2734,"pop":2735,"thom":2736,"situations":2737,"incredible":2738,"ultimately":2739,"vour":2740,"amusing":2741,"fashion":2742,"ura":2743,"gram":2744,"bizarre":2745,"adventure":2746,"moves":2747,"control":2748,"trad":2749,"appreciate":2750,"akes":2751,"involving":2752,"loy":2753,"awesome":2754,"izing":2755,"plane":2756,"revenge":2757,"bling":2758,"longer":2759,"notice":2760,"aper":2761,"dad":2762,"gent":2763,"depress":2764,"appearance":2765,"slasher":2766,"govern":2767,"depth":2768,"ensive":2769,"sey":2770,"terri":2771,"ja":2772,"delight":2773,"younger":2774,"mill":2775,"continu":2776,"bles":2777,"yeah":2778,"aside":2779,"fell":2780,"jane":2781,"alive":2782,"wash":2783,"answer":2784,"jew":2785,"fake":2786,"spend":2787,"humour":2788,"purpose":2789,"jones":2790,"decide":2791,"avail":2792,"basic":2793,"pil":2794,"runs":2795,"presented":2796,"shoot":2797,"cliche":2798,"wolf":2799,"stone":2800,"shooting":2801,"grade":2802,"changed":2803,"milit":2804,"legend":2805,"mysterious":2806,"manner":2807,"studio":2808,"pportun":2809,"date":2810,"smith":2811,"gle":2812,"recommended":2813,"russ":2814,"likes":2815,"biggest":2816,"ride":2817,"channel":2818,"questions":2819,"lam":2820,"enn":2821,"opportun":2822,"tun":2823,"ites":2824,"bell":2825,"ds":2826,"rect":2827,"investig":2828,"ku":2829,"respons":2830,"heavy":2831,"cell":2832,"iced":2833,"martin":2834,"books":2835,"proper":2836,"south":2837,"glo":2838,"grad":2839,"charles":2840,"standard":2841,"garb":2842,"prove":2843,"genius":2844,"critic":2845,"impossible":2846,"issues":2847,"pract":2848,"mood":2849,"faith":2850,"park":2851,"carry":2852,"gas":2853,"cher":2854,"magic":2855,"silent":2856,"andre":2857,"club":2858,"drive":2859,"starring":2860,"criminal":2861,"taste":2862,"barely":2863,"iss":2864,"haun":2865,"itor":2866,"developed":2867,"leaving":2868,"images":2869,"ived":2870,"dun":2871,"surprisingly":2872,"uc":2873,"turning":2874,"hall":2875,"100":2876,"robin":2877,"threat":2878,"iers":2879,"termin":2880,"detective":2881,"leng":2882,"values":2883,"thinks":2884,"conclusion":2885,"anth":2886,"random":2887,"rob":2888,"added":2889,"13":2890,"gree":2891,"assu":2892,"festival":2893,"bruce":2894,"finish":2895,"weren":2896,"nast":2897,"mistry":2898,"consist":2899,"adult":2900,"ization":2901,"literally":2902,"aff":2903,"showed":2904,"insul":2905,"ateur":2906,"chemistry":2907,"favour":2908,"costum":2909,"loud":2910,"depict":2911,"honestly":2912,"fool":2913,"ened":2914,"ults":2915,"pair":2916,"exception":2917,"70":2918,"trip":2919,"changes":2920,"edge":2921,"via":2922,"failed":2923,"places":2924,"soul":2925,"chan":2926,"garbage":2927,"race":2928,"rog":2929,"disturbing":2930,"redeem":2931,"occur":2932,"indust":2933,"grace":2934,"jean":2935,"phy":2936,"dancing":2937,"juli":2938,"gro":2939,"load":2940,"enter":2941,"complain":2942,"wis":2943,"drink":2944,"amateur":2945,"sexy":2946,"kes":2947,"satisf":2948,"government":2949,"aven":2950,"arily":2951,"charlie":2952,"techn":2953,"rema":2954,"immediately":2955,"innocent":2956,"army":2957,"tone":2958,"reli":2959,"obsess":2960,"flashback":2961,"witness":2962,"computer":2963,"pects":2964,"singing":2965,"ordinary":2966,"journey":2967,"bir":2968,"boss":2969,"minis":2970,"remain":2971,"nobody":2972,"producer":2973,"sion":2974,"core":2975,"building":2976,"nick":2977,"nowhere":2978,"likable":2979,"naked":2980,"ene":2981,"pictures":2982,"cks":2983,"remark":2984,"***":2985,"million":2986,"names":2987,"chin":2988,"knowing":2989,"gory":2990,"chick":2991,"author":2992,"considered":2993,"spoiler":2994,"alex":2995,"aus":2996,"bon":2997,"sof":2998,"ener":2999,"available":3000,"bought":3001,"chap":3002,"intrigu":3003,"loose":3004,"crash":3005,"news":3006,"audiences":3007,"pun":3008,"disco":3009,"yed":3010,"iny":3011,"mexic":3012,"interview":3013,"generally":3014,"passion":3015,"somewhere":3016,"twists":3017,"esh":3018,"presence":3019,"curi":3020,"climax":3021,"shadow":3022,"aspect":3023,"beha":3024,"loves":3025,"bear":3026,"phone":3027,"military":3028,"ilt":3029,"neigh":3030,"steal":3031,"prot":3032,"sky":3033,"gag":3034,"succeed":3035,"comedies":3036,"belief":3037,"queen":3038,"rare":3039,"essent":3040,"everybody":3041,"confl":3042,"trust":3043,"bled":3044,"moral":3045,"evid":3046,"gry":3047,"bottom":3048,"utterly":3049,"lay":3050,"appeared":3051,"animated":3052,"riage":3053,"freak":3054,"ests":3055,"init":3056,"appy":3057,"indian":3058,"intent":3059,"noir":3060,"chuck":3061,"flow":3062,"suspect":3063,"watchable":3064,"000":3065,"kno":3066,"hook":3067,"destroy":3068,"motion":3069,"historical":3070,"likely":3071,"personally":3072,"melo":3073,"billy":3074,"tend":3075,"stock":3076,"walking":3077,"beautifully":3078,"cum":3079,"correct":3080,"witch":3081,"exp":3082,"anda":3083,"terms":3084,"sitting":3085,"steve":3086,"verse":3087,"soldiers":3088,"coll":3089,"affair":3090,"stunning":3091,"apo":3092,"london":3093,"lovely":3094,"dor":3095,"award":3096,"enced":3097,"wow":3098,"thrown":3099,"titles":3100,"mic":3101,"tro":3102,"pra":3103,"brief":3104,"chur":3105,"dev":3106,"vidu":3107,"feat":3108,"cinematic":3109,"individu":3110,"christmas":3111,"eper":3112,"giant":3113,"influ":3114,"prop":3115,"ades":3116,"managed":3117,"mental":3118,"speaking":3119,"stan":3120,"bits":3121,"trick":3122,"jeff":3123,"civil":3124,"boyfriend":3125,"position":3126,"planet":3127,"impression":3128,"justice":3129,"mut":3130,"izes":3131,"appropri":3132,"ires":3133,"commer":3134,"east":3135,"push":3136,"onto":3137,"terrific":3138,"intended":3139,"joan":3140,"sli":3141,"18":3142,"theless":3143,"professional":3144,"plots":3145,"zo":3146,"drunk":3147,"ify":3148,"photography":3149,"thin":3150,"ito":3151,"costumes":3152,"remains":3153,"kin":3154,"escap":3155,"orts":3156,"\".<":3157,"mult":3158,"henry":3159,"painful":3160,"touching":3161,"program":3162,"fox":3163,"independ":3164,"protagon":3165,"comfort":3166,"emotions":3167,"dom":3168,"unbelievable":3169,"abor":3170,"student":3171,"constantly":3172,"double":3173,"zombies":3174,"details":3175,"charming":3176,"suppose":3177,"crack":3178,"naz":3179,"serial":3180,"wel":3181,"moon":3182,"univers":3183,"jason":3184,"syste":3185,"wy":3186,"avis":3187,"anders":3188,"ots":3189,"brid":3190,"charm":3191,"fal":3192,"tour":3193,"held":3194,"disappointing":3195,"slowly":3196,"gal":3197,"devil":3198,"11":3199,"thes":3200,"offer":3201,"lover":3202,"hosp":3203,"ante":3204,"hitchcock":3205,"lish":3206,"discus":3207,"besides":3208,"laughable":3209,"thur":3210,"surround":3211,"scenery":3212,"central":3213,"mm":3214,"arts":3215,"seven":3216,"los":3217,"ston":3218,"faces":3219,"lived":3220,"willing":3221,"eth":3222,"psych":3223,"hoping":3224,"puts":3225,"narrative":3226,"isa":3227,"ado":3228,"holes":3229,"medio":3230,"jects":3231,"agent":3232,"marriage":3233,"stein":3234,"ified":3235,"wide":3236,"viet":3237,"absur":3238,"subst":3239,"christian":3240,"virt":3241,"priv":3242,"fli":3243,"outstanding":3244,"drawn":3245,"fright":3246,"jan":3247,"woods":3248,"ya":3249,"graphic":3250,"pi":3251,"trag":3252,"pull":3253,"games":3254,"happening":3255,"finding":3256,"excuse":3257,"equally":3258,"eat":3259,"americans":3260,"collection":3261,"quie":3262,"captain":3263,"station":3264,"block":3265,"tony":3266,"intense":3267,"beth":3268,"filming":3269,"stands":3270,"flicks":3271,"qual":3272,"contains":3273,"attractive":3274,"ahead":3275,"feelings":3276,"gain":3277,"mine":3278,"ledge":3279,"mistake":3280,"behavi":3281,"expectations":3282,"radio":3283,"host":3284,"clean":3285,"40":3286,"resem":3287,"fing":3288,"themes":3289,"laughter":3290,"mainly":3291,"span":3292,"aspects":3293,"ively":3294,"opportunity":3295,"andon":3296,"moun":3297,"commercial":3298,"inspir":3299,"disgust":3300,"folks":3301,"decis":3302,"adaptation":3303,"distr":3304,"heads":3305,"cliches":3306,"tired":3307,"addition":3308,"victims":3309,"canad":3310,"actresses":3311,"dread":3312,"fish":3313,"arm":3314,"leader":3315,"placed":3316,"resc":3317,"command":3318,"lights":3319,"suic":3320,"contem":3321,"porn":3322,"rout":3323,"disappointment":3324,"12":3325,"eight":3326,"bol":3327,"forever":3328,"fascinating":3329,"difference":3330,"opera":3331,"card":3332,"oli":3333,"gs":3334,"safe":3335,"content":3336,"heroes":3337,"bright":3338,"judge":3339,"paid":3340,".....":3341,"weap":3342,"hurt":3343,"lighting":3344,"stuck":3345,"breaking":3346,"hospital":3347,"absurd":3348,"ison":3349,"surely":3350,"tt":3351,"process":3352,"?!":3353,"amed":3354,"breath":3355,"matic":3356,"image":3357,"confused":3358,"fif":3359,"origin":3360,"falling":3361,"asts":3362,"sea":3363,"impressed":3364,"dick":3365,"lacks":3366,"hide":3367,"nons":3368,"itude":3369,"brown":3370,"hotel":3371,"boat":3372,"critics":3373,"tran":3374,"industry":3375,"cele":3376,"mike":3377,"confusing":3378,"kevin":3379,"dated":3380,"gem":3381,"norm":3382,"relationships":3383,"nel":3384,"adam":3385,"creature":3386,"magn":3387,"teacher":3388,"ugly":3389,"aries":3390,"moore":3391,"adds":3392,"slap":3393,"lau":3394,"states":3395,"students":3396,"seemingly":3397,"mob":3398,"include":3399,"nomin":3400,"struct":3401,"dreams":3402,"anne":3403,"horse":3404,"putting":3405,"compan":3406,"supposedly":3407,"negative":3408,"nasty":3409,"laughed":3410,"remote":3411,"fellow":3412,"aware":3413,"gorge":3414,"sight":3415,"cgi":3416,"mont":3417,"skin":3418,"hack":3419,"wars":3420,"steven":3421,"cab":3422,"food":3423,"disaster":3424,"damn":3425,"multi":3426,"warm":3427,"emplo":3428,"kidn":3429,"summer":3430,"fied":3431,"illa":3432,"spectac":3433,"uk":3434,"superi":3435,"lord":3436,"provid":3437,"zen":3438,"gon":3439,"igno":3440,"forgotten":3441,"spec":3442,"birth":3443,"location":3444,"explained":3445,"christop":3446,"argu":3447,"ties":3448,"possess":3449,"information":3450,"model":3451,"unknown":3452,"intention":3453,"allowed":3454,"window":3455,"vert":3456,"lessly":3457,"nis":3458,"progress":3459,"grat":3460,"pot":3461,"shouldn":3462,"uts":3463,"occasion":3464,"becoming":3465,"share":3466,"dubb":3467,"traged":3468,"irrit":3469,"delivers":3470,"lying":3471,"murders":3472,"rush":3473,"ases":3474,"president":3475,"mouth":3476,"drop":3477,"thir":3478,"craw":3479,"bum":3480,"mild":3481,"aly":3482,"uel":3483,"austral":3484,"accurate":3485,"christopher":3486,"bank":3487,"hasn":3488,"funniest":3489,"blind":3490,"nightm":3491,"compelling":3492,"pup":3493,"extr":3494,"anymore":3495,"offers":3496,"rot":3497,"flaws":3498,"chinese":3499,"sac":3500,"rage":3501,"merely":3502,"vides":3503,"celebr":3504,"cars":3505,"hab":3506,"artist":3507,"lif":3508,"sour":3509,"twice":3510,"creative":3511,"gorgeous":3512,"angry":3513,"machine":3514,"adults":3515,"soft":3516,"nes":3517,"thats":3518,"length":3519,"wondering":3520,"williams":3521,"loving":3522,"pleasant":3523,"russian":3524,"estab":3525,"pin":3526,"apartment":3527,"fection":3528,"prefer":3529,"hat":3530,"personality":3531,"helps":3532,"reminded":3533,"conce":3534,"dirty":3535,"hay":3536,"rose":3537,"dut":3538,"gin":3539,"neighbor":3540,"jes":3541,"seg":3542,"tragic":3543,"comparis":3544,"mediocre":3545,"fights":3546,"oud":3547,"element":3548,"impact":3549,"convers":3550,"shocking":3551,"system":3552,"candy":3553,"explan":3554,"rented":3555,"rul":3556,"area":3557,"therefore":3558,"proves":3559,"loss":3560,"domin":3561,"frust":3562,"jam":3563,"alan":3564,"ups":3565,"oughly":3566,"bloody":3567,"lind":3568,"iev":3569,"bow":3570,"tight":3571,"forgettable":3572,"agger":3573,"ior":3574,"brok":3575,"proved":3576,"ister":3577,"teenage":3578,"trailer":3579,"howard":3580,"dig":3581,"provides":3582,"serv":3583,"kr":3584,"punch":3585,"powers":3586,"wearing":3587,"chill":3588,"epic":3589,"gene":3590,"formula":3591,"commentary":3592,"surprising":3593,"followed":3594,"stew":3595,"seconds":3596,"cops":3597,"agers":3598,"superior":3599,"realism":3600,"lose":3601,"ech":3602,"burn":3603,"imagination":3604,"latter":3605,"scientist":3606,"asks":3607,"itions":3608,"achie":3609,"connection":3610,"ona":3611,"partner":3612,"calls":3613,"understanding":3614,"numbers":3615,"drugs":3616,"va":3617,"accom":3618,"auto":3619,"oppos":3620,"depart":3621,"martial":3622,"dying":3623,"provide":3624,"returns":3625,"mum":3626,"ency":3627,"stat":3628,"wooden":3629,"snow":3630,"uous":3631,"continue":3632,"slo":3633,"moved":3634,"deserved":3635,"afraid":3636,"aps":3637,"cali":3638,"responsible":3639,"davis":3640,"vac":3641,"cha":3642,"pers":3643,"convent":3644,"boo":3645,"cow":3646,"issue":3647,"demand":3648,"asked":3649,"educ":3650,"winning":3651,"independent":3652,"comedic":3653,"nal":3654,"achieve":3655,"youth":3656,"flying":3657,"ww":3658,"conflict":3659,"wee":3660,"fold":3661,"speed":3662,"cup":3663,"finished":3664,"standards":3665,"presents":3666,"60":3667,"religious":3668,".,":3669,"stren":3670,"picked":3671,"pleasure":3672,"ano":3673,"animal":3674,"kelly":3675,"warning":3676,"syn":3677,"jackson":3678,"intelligence":3679,"aa":3680,"favourite":3681,"tragedy":3682,"bian":3683,"scare":3684,"rupt":3685,"suicide":3686,"bag":3687,"cook":3688,"twenty":3689,"vs":3690,"north":3691,"blame":3692,"zero":3693,"ira":3694,"bio":3695,"craft":3696,"eddie":3697,"helped":3698,"introduced":3699,"intriguing":3700,"cable":3701,"itional":3702,"thomas":3703,"wanting":3704,"aliens":3705,"soever":3706,"gling":3707,"harris":3708,"fond":3709,"unusual":3710,"rubb":3711,"rarely":3712,"mu":3713,"accor":3714,"heal":3715,"relative":3716,"limited":3717,"whatsoever":3718,"soldier":3719,"repeated":3720,"lucky":3721,"describe":3722,"py":3723,"fill":3724,"rend":3725,"physical":3726,"realized":3727,"childhood":3728,"motiv":3729,"bour":3730,"buff":3731,"memory":3732,"cis":3733,"cate":3734,"hs":3735,"ining":3736,"acade":3737,"unexpected":3738,"hidden":3739,"pilot":3740,"belong":3741,"clothes":3742,"oso":3743,"hated":3744,"beach":3745,"transform":3746,"pir":3747,"lewis":3748,"perform":3749,"pit":3750,"awk":3751,"streng":3752,"tape":3753,"cused":3754,"bland":3755,"sucks":3756,"jac":3757,"separ":3758,"reck":3759,"appropriate":3760,"nan":3761,"stink":3762,"sympath":3763,"torture":3764,"arthur":3765,"manage":3766,"tears":3767,"prep":3768,"ption":3769,"price":3770,"jerry":3771,"brutal":3772,"ifer":3773,"goof":3774,"chain":3775,"prince":3776,"tex":3777,"holds":3778,"remarkable":3779,"paper":3780,"fits":3781,"angle":3782,"began":3783,"shel":3784,"rape":3785,"techno":3786,"gangster":3787,"fare":3788,"resol":3789,"broken":3790,"kins":3791,"wat":3792,"yer":3793,"knock":3794,"erous":3795,"brad":3796,"ski":3797,"hic":3798,"mate":3799,"listen":3800,"bound":3801,"compare":3802,"dimens":3803,"research":3804,"batman":3805,"hund":3806,"guns":3807,"80s":3808,"ils":3809,"colum":3810,"magnific":3811,")<":3812,"spective":3813,"asing":3814,"paced":3815,"anywhere":3816,"redeeming":3817,"court":3818,"player":3819,"generation":3820,"ryan":3821,"buck":3822,"filmmaker":3823,"scious":3824,"owner":3825,"barbar":3826,"capable":3827,"thous":3828,"vey":3829,"struggle":3830,"church":3831,"flesh":3832,"animals":3833,"dangerous":3834,"frame":3835,"knowledge":3836,"constant":3837,"energy":3838,"sport":3839,"jr":3840,"nia":3841,"blon":3842,"ners":3843,"creating":3844,"ators":3845,"cere":3846,"foreign":3847,"shak":3848,"glas":3849,"brook":3850,"thousand":3851,"forces":3852,"smile":3853,"cruel":3854,"artistic":3855,"oted":3856,"debut":3857,"includes":3858,"stream":3859,"aire":3860,"hundred":3861,"served":3862,"awkward":3863,"ape":3864,"lone":3865,"singer":3866,"theatre":3867,"nicely":3868,"donald":3869,"techni":3870,"brand":3871,"officer":3872,"glass":3873,"mixed":3874,"noticed":3875,"complic":3876,"ppy":3877,"peace":3878,"villains":3879,"lovers":3880,"repor":3881,"cris":3882,"floor":3883,"accompl":3884,"anybody":3885,"below":3886,"aud":3887,"insane":3888,"iest":3889,"mitch":3890,"bath":3891,"mrs":3892,"quiet":3893,"drac":3894,"stephen":3895,"/>-":3896,"strain":3897,"uncle":3898,"deserve":3899,"desperate":3900,"mountain":3901,"lion":3902,"record":3903,"itty":3904,"community":3905,"buster":3906,"current":3907,"months":3908,"players":3909,"dennis":3910,"deeply":3911,"explanation":3912,"incident":3913,"wayne":3914,"driving":3915,"shop":3916,"azz":3917,"pacing":3918,"assist":3919,"wanna":3920,"scared":3921,"johnny":3922,"gary":3923,"atter":3924,"somebody":3925,"vote":3926,"bird":3927,"represent":3928,"shir":3929,"humanity":3930,"vul":3931,"bog":3932,"horri":3933,"streets":3934,"skip":3935,"entious":3936,"ousy":3937,"keeping":3938,"thoroughly":3939,"hits":3940,"ider":3941,"grave":3942,"bodies":3943,"stit":3944,"philoso":3945,"satisfying":3946,"fle":3947,"sole":3948,"jose":3949,"monsters":3950,"travel":3951,"itous":3952,".'":3953,"ote":3954,"lacking":3955,"witty":3956,"nin":3957,"atro":3958,"organ":3959,"stewart":3960,"saving":3961,"engaging":3962,"village":3963,"ai":3964,"vehic":3965,"soap":3966,"cash":3967,"ws":3968,"incre":3969,"asure":3970,"lust":3971,"forts":3972,"unnecessary":3973,"sympathetic":3974,"experiment":3975,"veter":3976,"explic":3977,"ivity":3978,"signific":3979,"apparent":3980,"pretentious":3981,"locations":3982,"miser":3983,"murdered":3984,"aine":3985,"courage":3986,"cuts":3987,"survive":3988,"page":3989,"dry":3990,"----":3991,"humans":3992,"frequ":3993,"naturally":3994,"parody":3995,"70s":3996,"seat":3997,"normally":3998,"brian":3999,"nonsense":4000,":<":4001,"ander":4002,"england":4003,"fate":4004,"greg":4005,"protect":4006,"iled":4007,"priest":4008,"eating":4009,"hes":4010,"sean":4011,"douglas":4012,"text":4013,"urban":4014,"interpret":4015,"nine":4016,"captured":4017,"weight":4018,"wonderfully":4019,"ville":4020,"associ":4021,"starting":4022,"rubbish":4023,"ican":4024,"contrast":4025,"comparison":4026,"barry":4027,"reminds":4028,"revolution":4029,"whil":4030,"fault":4031,"abs":4032,"charis":4033,"mature":4034,"desert":4035,"learned":4036,"concerned":4037,"dracula":4038,"edited":4039,"invent":4040,"memories":4041,"cise":4042,"proceed":4043,"freed":4044,"serve":4045,"vhs":4046,"wing":4047,"gard":4048,"rober":4049,"stret":4050,"conscious":4051,"hunter":4052,"gam":4053,"ilo":4054,"marry":4055,"technical":4056,"affect":4057,"bigger":4058,"meanwhile":4059,"leon":4060,"mini":4061,"growing":4062,"discovered":4063,"spanish":4064,"liber":4065,"empty":4066,"ario":4067,"thern":4068,"corpor":4069,"symbol":4070,"sheriff":4071,"dimensional":4072,"morning":4073,"passed":4074,"circum":4075,"behavior":4076,"cel":4077,"product":4078,"plaus":4079,"anthony":4080,"stor":4081,"numerous":4082,"visit":4083,"ena":4084,"thered":4085,"efforts":4086,"lake":4087,"whilst":4088,"meeting":4089,"assass":4090,"regular":4091,"originally":4092,"aret":4093,"treated":4094,"junk":4095,"altern":4096,"european":4097,"opposite":4098,"blonde":4099,"tan":4100,"tay":4101,"jenn":4102,"weal":4103,"media":4104,"wound":4105,"icious":4106,"prostit":4107,"lied":4108,"wear":4109,"coher":4110,"hole":4111,"teenagers":4112,"object":4113,"unders":4114,"skills":4115,"eric":4116,"encounter":4117,"cant":4118,"deb":4119,"quir":4120,"gags":4121,"erotic":4122,"revealed":4123,"context":4124,"frankly":4125,"dean":4126,"seless":4127,"included":4128,"according":4129,"sentiment":4130,"nation":4131,"service":4132,"promise":4133,"featuring":4134,"academy":4135,"jennifer":4136,"gil":4137,"capture":4138,"comfortable":4139,"nar":4140,"whenever":4141,"results":4142,"golden":4143,"icate":4144,"united":4145,"instance":4146,"ultimate":4147,"shakespe":4148,"abandon":4149,"patrick":4150,"scr":4151,"classics":4152,"spoof":4153,"sides":4154,"glor":4155,"references":4156,"lum":4157,"shallow":4158,"emer":4159,"satur":4160,"dol":4161,"marvel":4162,"toward":4163,"gross":4164,"hadn":4165,"grapher":4166,"hopes":4167,"intellect":4168,"occasionally":4169,"matt":4170,"danny":4171,"heroine":4172,"nn":4173,"constru":4174,"dealing":4175,"gif":4176,"iron":4177,"ruth":4178,"contribut":4179,"tu":4180,"alleng":4181,"guard":4182,"minim":4183,"related":4184,"inct":4185,"speech":4186,"........":4187,"target":4188,"competent":4189,"fame":4190,"private":4191,"overly":4192,"nich":4193,"opens":4194,"identity":4195,"protagonist":4196,"circumst":4197,"send":4198,"heck":4199,"sheer":4200,"finale":4201,"friendship":4202,"bringing":4203,"pless":4204,"desire":4205,"chore":4206,"psychological":4207,"sett":4208,"relate":4209,"16":4210,"heaven":4211,"iling":4212,"udes":4213,"insight":4214,"julie":4215,"refresh":4216,"humorous":4217,"contrived":4218,"cass":4219,"nur":4220,"corn":4221,"determin":4222,"deals":4223,"tribut":4224,"stated":4225,"advice":4226,"cies":4227,"rise":4228,"challeng":4229,"study":4230,"chair":4231,"nold":4232,"higher":4233,"stereotypes":4234,"wedding":4235,"robb":4236,"feet":4237,"osex":4238,"clim":4239,"individual":4240,"cameo":4241,"dressed":4242,"envir":4243,"beast":4244,"kir":4245,"range":4246,"talents":4247,"ette":4248,"essentially":4249,"fet":4250,"crappy":4251,"kinda":4252,"terribly":4253,"grown":4254,"rical":4255,"tack":4256,"ipul":4257,"center":4258,"saur":4259,"breaks":4260,"sco":4261,"pulled":4262,"zy":4263,"osexual":4264,"print":4265,"buddy":4266,"driver":4267,"gentle":4268,"evidence":4269,"asian":4270,"fro":4271,"ambit":4272,"plant":4273,"saved":4274,"dogs":4275,"magnificent":4276,"river":4277,"prov":4278,"facts":4279,"kong":4280,"native":4281,"format":4282,"rant":4283,"enemy":4284,"aton":4285,"admir":4286,"lynch":4287,"crowd":4288,"rival":4289,"international":4290,"finest":4291,"hearted":4292,"attitude":4293,"anime":4294,"regret":4295,"atory":4296,"nightmare":4297,"section":4298,"princi":4299,"rence":4300,"levels":4301,"received":4302,"unrealistic":4303,"ques":4304,"iety":4305,"gonna":4306,"taylor":4307,"environ":4308,"statement":4309,"massac":4310,"dreadful":4311,"sequels":4312,"spectacular":4313,"jay":4314,"manipul":4315,"ella":4316,"sharp":4317,"bid":4318,"murphy":4319,"promising":4320,"jung":4321,"remembered":4322,"unfunny":4323,"authen":4324,"reviewers":4325,"flashbacks":4326,"perspective":4327,"castle":4328,"strip":4329,"market":4330,"holmes":4331,"freedom":4332,"ato":4333,"abr":4334,"ctr":4335,"exploitation":4336,"decade":4337,"relief":4338,"shakespeare":4339,"chief":4340,"iac":4341,"preh":4342,"cares":4343,"document":4344,"rescue":4345,"rie":4346,"evol":4347,"spin":4348,"rolling":4349,"suffering":4350,"demonstr":4351,"discovers":4352,"sche":4353,"ination":4354,"scenario":4355,"satire":4356,"texas":4357,"hip":4358,"decision":4359,"failure":4360,"france":4361,"teens":4362,");":4363,"unfold":4364,"covered":4365,"marks":4366,"driven":4367,"reaction":4368,"union":4369,"ender":4370,"till":4371,"rough":4372,"tho":4373,"metal":4374,"unable":4375,".\"<":4376,"raw":4377,"ende":4378,"experienced":4379,"virgin":4380,"site":4381,"doom":4382,"lesbian":4383,"rifying":4384,"genuinely":4385,"bun":4386,"famil":4387,"continues":4388,"irritating":4389,"rules":4390,"daniel":4391,"sword":4392,"involves":4393,"rings":4394,"icts":4395,"logic":4396,"gig":4397,"sno":4398,"wick":4399,"cliched":4400,"professor":4401,"ache":4402,"sucked":4403,"canni":4404,"handed":4405,"naive":4406,"african":4407,"forest":4408,"sedu":4409,"link":4410,"tedious":4411,"walks":4412,"satan":4413,"anderson":4414,"loses":4415,"xious":4416,"trade":4417,"switch":4418,"louis":4419,"executed":4420,"cit":4421,"function":4422,"proud":4423,"depressing":4424,"built":4425,"visuals":4426,"francis":4427,"25":4428,"ather":4429,"friday":4430,"maint":4431,"cia":4432,"allows":4433,"ladies":4434,"treatment":4435,"apes":4436,"apping":4437,"authentic":4438,"rat":4439,"arms":4440,"guil":4441,"rental":4442,"???":4443,"fed":4444,"ara":4445,"brilliantly":4446,"sie":4447,"eer":4448,"kim":4449,"pregn":4450,"graphed":4451,"hyster":4452,"delivered":4453,"described":4454,"fab":4455,"robot":4456,"agre":4457,"nevertheless":4458,"propag":4459,"dish":4460,"sake":4461,"corrupt":4462,"blown":4463,"grew":4464,"cand":4465,"strict":4466,"figh":4467,"ama":4468,"rod":4469,"grim":4470,"handsome":4471,"pity":4472,"teenager":4473,"recall":4474,"stum":4475,"produce":4476,"existence":4477,"elle":4478,"jaw":4479,"ishing":4480,"underrated":4481,"majority":4482,"sant":4483,"uitous":4484,"lesson":4485,"glim":4486,"advert":4487,"eliza":4488,"combination":4489,"forth":4490,"wilder":4491,"screaming":4492,"mexican":4493,"ching":4494,"creatures":4495,"surreal":4496,"porary":4497,"strength":4498,"ulous":4499,"neck":4500,"appealing":4501,"cket":4502,"theaters":4503,"talks":4504,"ays":4505,"creates":4506,"gordon":4507,"dino":4508,"cutting":4509,"russell":4510,"roger":4511,"inept":4512,"nazi":4513,"hart":4514,"une":4515,"thoughts":4516,"tood":4517,"choose":4518,"portrays":4519,"rous":4520,"quar":4521,"aka":4522,"tax":4523,"sisters":4524,"cartoons":4525,"haunting":4526,"gratuitous":4527,"rep":4528,"asking":4529,"views":4530,"anci":4531,"weeks":4532,"barbara":4533,"cooper":4534,"hopefully":4535,"curious":4536,"bay":4537,"cil":4538,"killers":4539,"ec":4540,"cious":4541,"ration":4542,"supp":4543,"phan":4544,"emotionally":4545,"slapstick":4546,"vy":4547,"liz":4548,"offensive":4549,"crawford":4550,"roberts":4551,"turkey":4552,"ita":4553,"viewed":4554,"shocked":4555,"suffer":4556,"sir":4557,"scale":4558,"truck":4559,"dollars":4560,"kate":4561,"angers":4562,"woody":4563,"universal":4564,"horribly":4565,"understood":4566,"circumstances":4567,"rebel":4568,"secur":4569,"ador":4570,"endless":4571,"sons":4572,"inte":4573,"account":4574,"!).":4575,"electr":4576,"washing":4577,"families":4578,"dd":4579,"skill":4580,"commit":4581,"roman":4582,"claims":4583,"pian":4584,"spell":4585,"corny":4586,"choreo":4587,"14":4588,"visually":4589,"provided":4590,"expression":4591,"nichol":4592,"factor":4593,"transl":4594,"17":4595,"kore":4596,"serves":4597,"ike":4598,"jackie":4599,"ini":4600,"achel":4601,"subtitles":4602,"adding":4603,"mask":4604,"relevant":4605,"theatrical":4606,"virtually":4607,"jess":4608,"reput":4609,"revel":4610,"itable":4611,"hearing":4612,"ignor":4613,"assume":4614,"shut":4615,"source":4616,"technology":4617,"haw":4618,"usa":4619,"---":4620,"winner":4621,"massacre":4622,"embarrassing":4623,"disgusting":4624,"citiz":4625,"trek":4626,"aur":4627,"pool":4628,"chaplin":4629,"lab":4630,"blah":4631,"maintain":4632,"jail":4633,"champ":4634,"excite":4635,"vehicle":4636,"susan":4637,"surface":4638,"bitter":4639,"jar":4640,"alle":4641,"werewolf":4642,"meth":4643,"achiev":4644,"monkey":4645,"survivor":4646,"hunt":4647,"holding":4648,"cath":4649,"ping":4650,"angles":4651,"believes":4652,"bak":4653,"phis":4654,"chant":4655,"losing":4656,"anton":4657,"hh":4658,"steals":4659,"painfully":4660,"dinner":4661,"inev":4662,"usive":4663,"harsh":4664,"cyn":4665,"football":4666,"critical":4667,"tiny":4668,"guar":4669,"largely":4670,"\"),":4671,"twisted":4672,"oz":4673,"alco":4674,"fee":4675,"fix":4676,"hint":4677,"jum":4678,"highlight":4679,"faced":4680,"hammer":4681,"dubbed":4682,"ancient":4683,"ication":4684,"matters":4685,"amor":4686,"plor":4687,"evening":4688,"enstein":4689,"homosexual":4690,"som":4691,"maid":4692,"reviewer":4693,"excited":4694,"colour":4695,"silver":4696,"network":4697,"itz":4698,"poster":4699,"destru":4700,"amateurish":4701,"mort":4702,"lem":4703,"farm":4704,"costs":4705,"kung":4706,"het":4707,"coach":4708,"plans":4709,"hallo":4710,"califor":4711,"liners":4712,"fict":4713,"mock":4714,"honor":4715,"delightful":4716,"propaganda":4717,"strongly":4718,"adventures":4719,"execution":4720,"plausible":4721,"prior":4722,"vance":4723,"versions":4724,"simon":4725,"traditional":4726,"__":4727,"nest":4728,"edward":4729,"keaton":4730,"dust":4731,"lousy":4732,"arrest":4733,"shark":4734,"jimmy":4735,"qualities":4736,"vincent":4737,"supernatural":4738,"legal":4739,"haunted":4740,"ibility":4741,"veteran":4742,"jungle":4743,"alcohol":4744,"cous":4745,"ez":4746,"descript":4747,"sions":4748,"inner":4749,"dynam":4750,"lane":4751,"yle":4752,"stopped":4753,"miles":4754,"praise":4755,"intentionally":4756,"ease":4757,"makeup":4758,"caused":4759,"halloween":4760,"wreck":4761,"aint":4762,"sports":4763,"involve":4764,"practically":4765,"saturday":4766,"ole":4767,"carol":4768,"figured":4769,"idiot":4770,"necessarily":4771,"prime":4772,"provok":4773,"spects":4774,"wilson":4775,"elli":4776,"spre":4777,"decl":4778,"lower":4779,"dragon":4780,"directly":4781,"extras":4782,"bone":4783,"mous":4784,"chi":4785,"display":4786,"visible":4787,"changing":4788,"coherent":4789,"method":4790,"benef":4791,"routine":4792,"refreshing":4793,"rab":4794,"mirror":4795,"segment":4796,"report":4797,"multiple":4798,"ium":4799,"nut":4800,"tong":4801,"vable":4802,"unfortunate":4803,"trapped":4804,"pursu":4805,"learns":4806,"false":4807,"khan":4808,"noon":4809,"chosen":4810,"obsc":4811,"sensitive":4812,"obsessed":4813,"relatively":4814,"pier":4815,"lloy":4816,"spends":4817,"walked":4818,"brave":4819,"clue":4820,"committed":4821,"headed":4822,"portraying":4823,"insult":4824,"joseph":4825,"elizabeth":4826,"security":4827,"mend":4828,"shine":4829,"shall":4830,"porno":4831,"featured":4832,"canadian":4833,"tie":4834,"braz":4835,"rights":4836,"speaks":4837,"cring":4838,"granted":4839,"notch":4840,"anged":4841,"handled":4842,"india":4843,"australian":4844,"excitement":4845,"religion":4846,"faithful":4847,"preach":4848,"ruined":4849,"universe":4850,"pic":4851,"conversation":4852,"grab":4853,"puzz":4854,"betray":4855,"believed":4856,"oul":4857,"robo":4858,"firm":4859,"imaginative":4860,"welcome":4861,"ued":4862,"wrest":4863,"alice":4864,"voices":4865,"deaths":4866,"variety":4867,"substance":4868,"reminis":4869,"costu":4870,"pted":4871,"experiences":4872,"deadly":4873,"sorts":4874,"jesus":4875,"costume":4876,"inder":4877,"ideal":4878,"morgan":4879,"integr":4880,"gles":4881,"arded":4882,"marie":4883,"swim":4884,"department":4885,"jen":4886,"vague":4887,"dos":4888,"exagger":4889,"hanging":4890,"bra":4891,"whel":4892,"irish":4893,"laura":4894,"distri":4895,"flight":4896,"abil":4897,"poses":4898,"southern":4899,"influence":4900,"sympathy":4901,"pitch":4902,"poign":4903,"helen":4904,"mainstream":4905,"stereotypical":4906,"vampires":4907,"tree":4908,"spring":4909,"california":4910,"sophis":4911,"code":4912,"guest":4913,"):":4914,"wwi":4915,"enthus":4916,"compreh":4917,"entertained":4918,"depicted":4919,"vietnam":4920,"acqu":4921,"abuse":4922,"compar":4923,"mates":4924,"ashing":4925,"johnson":4926,"contemporary":4927,"enthusi":4928,"lud":4929,"toler":4930,"omen":4931,"rol":4932,"realizes":4933,"stolen":4934,"refle":4935,"tast":4936,"leep":4937,"outrage":4938,"movement":4939,"controvers":4940,"sophistic":4941,"ji":4942,"sne":4943,"asleep":4944,"awards":4945,"performed":4946,"guilty":4947,"hong":4948,"tag":4949,"franch":4950,"weapons":4951,"reporter":4952,"mann":4953,"sarah":4954,"nominated":4955,"las":4956,"inn":4957,"pulls":4958,"legendary":4959,"crying":4960,"closer":4961,"julia":4962,"structure":4963,"nav":4964,"1st":4965,"connected":4966,"mud":4967,"gritty":4968,"franco":4969,"destroyed":4970,"isol":4971,"chic":4972,"letter":4973,"resist":4974,"term":4975,"cure":4976,"ential":4977,"mented":4978,"clark":4979,"caly":4980,"politics":4981,"goofy":4982,"lloyd":4983,"resid":4984,"ert":4985,"semi":4986,"suffers":4987,"instru":4988,"shy":4989,"confess":4990,"appreciated":4991,"latest":4992,"cannibal":4993,"cence":4994,"incid":4995,"convinced":4996,"inher":4997,"aming":4998,"stayed":4999,"princess":5000,"connect":5001,"abandoned":5002,"dinosaur":5003,"tall":5004,"mond":5005,"touches":5006,"suspenseful":5007,"karl":5008,"apocaly":5009,"warner":5010,"germany":5011,"loyal":5012,"frightening":5013,"fbi":5014,"device":5015,"shif":5016,"flynn":5017,"seag":5018,"amy":5019,"neat":5020,"cases":5021,"jewish":5022,"intellectual":5023,"bull":5024,"icated":5025,"demo":5026,"darkness":5027,"repetit":5028,"emphas":5029,"partic":5030,"cheer":5031,"penn":5032,"drinking":5033,"thum":5034,"dozen":5035,"calling":5036,"1980":5037,"divor":5038,"focused":5039,"zan":5040,"complicated":5041,"quirky":5042,"sink":5043,"degree":5044,"everywhere":5045,"bush":5046,"pile":5047,"yu":5048,"previously":5049,"regarding":5050,"!),":5051,"ey":5052,"china":5053,"pets":5054,"studios":5055,"establish":5056,"dur":5057,"hugh":5058,"minds":5059,"rule":5060,"melodrama":5061,"tural":5062,"murderer":5063,"bic":5064,"seek":5065,"mono":5066,"aze":5067,"larry":5068,"phant":5069,"interviews":5070,"holi":5071,"tales":5072,"worthwhile":5073,"landsc":5074,"continuity":5075,"mail":5076,"explor":5077,"warned":5078,"nude":5079,"oooo":5080,"reflect":5081,"accidentally":5082,"worry":5083,"initial":5084,"status":5085,"therine":5086,"bothered":5087,"dude":5088,"productions":5089,"cave":5090,"kur":5091,"phe":5092,"whoever":5093,"render":5094,"westerns":5095,"nuclear":5096,"gate":5097,"wins":5098,"concent":5099,"cheese":5100,"convince":5101,"rolled":5102,"thro":5103,"analy":5104,"spy":5105,"adequ":5106,"cag":5107,"cage":5108,"charge":5109,"borrow":5110,"kni":5111,"nostal":5112,"butt":5113,"excess":5114,"improve":5115,"powell":5116,"greater":5117,"claimed":5118,"remotely":5119,"prepared":5120,"meat":5121,"gues":5122,"ached":5123,"kiss":5124,"sitcom":5125,"focuses":5126,"trap":5127,"raised":5128,"magical":5129,"jon":5130,"conv":5131,"minded":5132,"originality":5133,"walter":5134,"superman":5135,"iger":5136,"swed":5137,"initially":5138,"fortune":5139,"captures":5140,"thankfully":5141,"required":5142,"category":5143,"goth":5144,"trilo":5145,"surprises":5146,"victori":5147,"storm":5148,"reputation":5149,"victor":5150,"hired":5151,"intim":5152,"campy":5153,"seasons":5154,"spite":5155,"hil":5156,"tz":5157,"accents":5158,"arrives":5159,"anced":5160,"poe":5161,"deeper":5162,"outing":5163,"rhy":5164,"iles":5165,"gia":5166,"examples":5167,"aunt":5168,"brick":5169,"noxious":5170,"forgot":5171,"indul":5172,"subsequ":5173,"steps":5174,"cagney":5175,"outs":5176,"miller":5177,"von":5178,"edy":5179,"challen":5180,"feed":5181,"choices":5182,"passing":5183,"funnier":5184,"pink":5185,"training":5186,"heavily":5187,"habit":5188,"ludic":5189,"nights":5190,"jeal":5191,"bbc":5192,"screening":5193,"closing":5194,"massive":5195,"alter":5196,"rian":5197,"lonely":5198,"tommy":5199,"recognize":5200,"occup":5201,"touched":5202,"1970":5203,"extraordinary":5204,"seagal":5205,"spoken":5206,"amazingly":5207,"broadway":5208,"advant":5209,"balls":5210,"summary":5211,"brazil":5212,"vast":5213,"aded":5214,"curse":5215,"explains":5216,"dece":5217,"lucy":5218,"paying":5219,"error":5220,"bollywood":5221,"internet":5222,"obnoxious":5223,"mexico":5224,"washington":5225,"ee":5226,"gm":5227,"stair":5228,"join":5229,"warri":5230,"starred":5231,"amazed":5232,"painting":5233,"pati":5234,"profound":5235,"captiv":5236,"\").":5237,"kat":5238,"essential":5239,"blockbuster":5240,"trav":5241,"cra":5242,"stomach":5243,"designed":5244,"kets":5245,"condition":5246,"favorites":5247,"occasional":5248,"upper":5249,"parker":5250,"ashed":5251,"unlikely":5252,"expert":5253,"ami":5254,"otes":5255,"buying":5256,"address":5257,"sna":5258,"timing":5259,"icted":5260,"philli":5261,"appearing":5262,"delivery":5263,"decades":5264,"boun":5265,"bron":5266,"uninteresting":5267,",'":5268,"bare":5269,"eral":5270,"bern":5271,"dawn":5272,"drew":5273,"albert":5274,"ari":5275,"chose":5276,"disagree":5277,"border":5278,"fictional":5279,"abilities":5280,"bore":5281,"kinds":5282,"clown":5283,"collect":5284,"throwing":5285,"mickey":5286,"scares":5287,"voc":5288,"admitted":5289,"trilogy":5290,"orient":5291,"shoes":5292,"friendly":5293,"uniform":5294,"hitler":5295,"packed":5296,"knight":5297,"thed":5298,"femin":5299,"enjoying":5300,"africa":5301,"pes":5302,"stro":5303,"torn":5304,"lifetime":5305,"downright":5306,"particip":5307,"hoff":5308,"rix":5309,"tarant":5310,"wealthy":5311,"lands":5312,"official":5313,"bia":5314,"hopeless":5315,"nonetheless":5316,"weapon":5317,"bride":5318,"aston":5319,"blat":5320,"conspir":5321,"confront":5322,"grues":5323,"storytelling":5324,"ruin":5325,"searching":5326,"determined":5327,"zard":5328,"indie":5329,"bang":5330,"sive":5331,"task":5332,"unconvincing":5333,"patri":5334,"struggling":5335,"uted":5336,"kel":5337,"sham":5338,"gray":5339,"paralle":5340,"appall":5341,"atrocious":5342,"yard":5343,"amongst":5344,"throws":5345,"reference":5346,"atives":5347,"creation":5348,"severe":5349,"bber":5350,"winter":5351,"tear":5352,"desperately":5353,"riding":5354,"brooks":5355,"pg":5356,"redu":5357,"phen":5358,"jobs":5359,"balance":5360,"narration":5361,"effectively":5362,"robber":5363,"succeeds":5364,"cultural":5365,"mildly":5366,"environment":5367,"gruesome":5368,"elder":5369,"fiance":5370,"ninja":5371,"pher":5372,"pig":5373,"awa":5374,"offered":5375,"anity":5376,"wears":5377,"2000":5378,"weekend":5379,"ignore":5380,"beit":5381,"paint":5382,"asm":5383,"artists":5384,"carries":5385,"distinct":5386,"2001":5387,"introduction":5388,"provoking":5389,"underground":5390,"handle":5391,"tradition":5392,"mgm":5393,"itar":5394,"perfection":5395,"conven":5396,"screenwriter":5397,"colon":5398,"colors":5399,"mistakes":5400,"mst":5401,"isto":5402,"albeit":5403,"stylish":5404,"fairy":5405,"lawyer":5406,"striking":5407,"vacation":5408,"reminiscent":5409,"racist":5410,"ware":5411,"24":5412,"bis":5413,"sket":5414,"sav":5415,"combined":5416,"mit":5417,"yo":5418,"doo":5419,"answers":5420,"struck":5421,"tremend":5422,"concert":5423,"rum":5424,"tick":5425,"aken":5426,"bugs":5427,"capital":5428,"criminals":5429,"dict":5430,"entry":5431,"prevent":5432,"nery":5433,"journal":5434,"proof":5435,"bette":5436,"broke":5437,"figures":5438,"properly":5439,"stab":5440,"maria":5441,"folk":5442,"wheel":5443,"editor":5444,"ifi":5445,"teeth":5446,"stranger":5447,"caine":5448,"attempting":5449,"attacked":5450,"astr":5451,"chased":5452,"walker":5453,"causes":5454,"wwii":5455,"oliver":5456,"/>*":5457,"beck":5458,"ading":5459,"uss":5460,"overwhel":5461,"addy":5462,"deliber":5463,"freddy":5464,"criticism":5465,"maniac":5466,"metap":5467,"bridge":5468,"nurse":5469,"oil":5470,"actic":5471,"treasure":5472,"kane":5473,"ensu":5474,"disgu":5475,"ashamed":5476,"linda":5477,"learning":5478,"depiction":5479,"finger":5480,"assistant":5481,"lap":5482,"todd":5483,"restaur":5484,"dollar":5485,"pregnant":5486,"dare":5487,"fx":5488,"toy":5489,"alright":5490,"notori":5491,"aking":5492,"everyday":5493,"contact":5494,"sounded":5495,"attacks":5496,"blair":5497,"sunday":5498,"regardless":5499,"aves":5500,"chasing":5501,"joint":5502,"contest":5503,"imagery":5504,"stays":5505,"reveals":5506,"atra":5507,"scrip":5508,"assign":5509,"oth":5510,"uff":5511,"aces":5512,"woo":5513,"baseball":5514,"significant":5515,"tte":5516,"ada":5517,"comical":5518,"horrific":5519,"renting":5520,"carried":5521,"alike":5522,"technically":5523,"fighter":5524,"franchise":5525,"ludicrous":5526,"size":5527,"1950":5528,"sinister":5529,"tribute":5530,"reward":5531,"lia":5532,"poet":5533,"crush":5534,"graphics":5535,"equal":5536,"challenge":5537,"crude":5538,"halfway":5539,"listening":5540,"eastwood":5541,"thre":5542,"bald":5543,"intentional":5544,"yan":5545,"neil":5546,"curt":5547,"successfully":5548,"frankenstein":5549,"acing":5550,"pled":5551,"premi":5552,"innocence":5553,"rachel":5554,"stoo":5555,"acle":5556,"ida":5557,"stops":5558,"dramat":5559,"fabulous":5560,"league":5561,"pointed":5562,"clips":5563,"retarded":5564,"crafted":5565,"chor":5566,"disbelief":5567,"clock":5568,"harm":5569,"fortunately":5570,"osity":5571,"shape":5572,"yl":5573,"exer":5574,"letting":5575,"compass":5576,"titled":5577,"trait":5578,"kis":5579,"lished":5580,"intr":5581,"stunt":5582,"libr":5583,"afternoon":5584,"ugs":5585,"patient":5586,"gee":5587,"geon":5588,"plastic":5589,"shell":5590,"void":5591,"advantage":5592,"kath":5593,"isher":5594,"clu":5595,"rein":5596,"access":5597,"leslie":5598,"mul":5599,"tery":5600,"disc":5601,"workers":5602,"newsp":5603,"caring":5604,"spook":5605,"extent":5606,"burst":5607,"facial":5608,"ratings":5609,"install":5610,"expressions":5611,"sleeping":5612,"seeking":5613,"raise":5614,"britain":5615,"nicol":5616,"competit":5617,"iat":5618,"notable":5619,"basis":5620,"aham":5621,"bilities":5622,"assassin":5623,"andering":5624,"madness":5625,"fourth":5626,"atmospher":5627,"gul":5628,"hr":5629,"rome":5630,"carp":5631,"cliff":5632,"laid":5633,"griff":5634,"inspiring":5635,"bast":5636,"...\"":5637,"daily":5638,"predator":5639,"strangely":5640,"flawed":5641,"smoking":5642,"description":5643,"motor":5644,"mindless":5645,"countries":5646,"cynical":5647,"holiday":5648,"dge":5649,"shr":5650,"turner":5651,"luke":5652,"novels":5653,"sophisticated":5654,"hence":5655,"ien":5656,"happiness":5657,"demons":5658,"inspiration":5659,"vier":5660,"aby":5661,"magaz":5662,"acceptable":5663,"bam":5664,"lav":5665,"ural":5666,"shorts":5667,"guide":5668,"silence":5669,"picks":5670,"tarantino":5671,"hust":5672,"slaughter":5673,"indu":5674,"presentation":5675,"stealing":5676,"conventional":5677,"minimal":5678,"poignant":5679,"ads":5680,"ime":5681,"selling":5682,"vices":5683,"confusion":5684,"sandler":5685,"\"?":5686,"helping":5687,"kirk":5688,"lisa":5689,"tap":5690,"infer":5691,"doc":5692,"scor":5693,"greatly":5694,"trium":5695,"hatt":5696,"olic":5697,"michelle":5698,"bac":5699,"ament":5700,"spiel":5701,"warming":5702,"elev":5703,"factory":5704,"gut":5705,"oce":5706,"aki":5707,"betty":5708,"screw":5709,"cousin":5710,"theory":5711,"stupidity":5712,"battles":5713,"zone":5714,"risk":5715,"thirty":5716,"ov":5717,"hears":5718,"pover":5719,"mansion":5720,"happily":5721,"piano":5722,"60s":5723,"99":5724,"eness":5725,"alas":5726,"adays":5727,"marg":5728,"consistent":5729,"iro":5730,"exceptional":5731,"purely":5732,"sentimental":5733,"nowadays":5734,"kicks":5735,"philip":5736,"frequently":5737,"scripts":5738,"sleazy":5739,"ghosts":5740,"nit":5741,"pas":5742,"uncomfortable":5743,"finan":5744,"reads":5745,"tongue":5746,"mun":5747,"diam":5748,"string":5749,"fallen":5750,"repeat":5751,"technique":5752,"oting":5753,"counts":5754,"logist":5755,"tune":5756,"dear":5757,"mechan":5758,"phr":5759,"kenned":5760,"gripping":5761,"hiding":5762,"pper":5763,"intens":5764,"flor":5765,"carl":5766,"crimes":5767,"scratch":5768,"cats":5769,"thew":5770,"whereas":5771,".)<":5772,"fonda":5773,"knife":5774,"ego":5775,"pion":5776,"beloved":5777,"mentally":5778,"terrorist":5779,"cowboy":5780,"cod":5781,"tense":5782,"clum":5783,"settings":5784,"innov":5785,"separate":5786,"champion":5787,"guarante":5788,"useless":5789,"chy":5790,"gosi":5791,"pray":5792,"credible":5793,"smooth":5794,"billi":5795,"announ":5796,"45":5797,"hud":5798,"rever":5799,"outer":5800,"clint":5801,"angels":5802,"192":5803,"solve":5804,"dramas":5805,"credibility":5806,"greek":5807,"gger":5808,"alleg":5809,"boot":5810,"simpl":5811,"pressed":5812,"oddly":5813,"carrying":5814,"lazy":5815,"virus":5816,"goal":5817,"conve":5818,"elled":5819,"legs":5820,"anticip":5821,"thousands":5822,"santa":5823,"tin":5824,"struggles":5825,"escapes":5826,"tat":5827,"locked":5828,"revolves":5829,"mitchell":5830,"exists":5831,"lesser":5832,"corner":5833,"lugosi":5834,"shoots":5835,"established":5836,"chilling":5837,"illust":5838,"connery":5839,"shines":5840,"sincere":5841,"twin":5842,"*****":5843,"hills":5844,"embarrassed":5845,"kidnapped":5846,"marvelous":5847,"gus":5848,"centric":5849,"murray":5850,"indians":5851,"tarzan":5852,"idiotic":5853,"kennedy":5854,"replace":5855,"ripped":5856,"ultra":5857,"web":5858,"welles":5859,"sexuality":5860,"stunts":5861,"tors":5862,"jerk":5863,"spiritual":5864,"chil":5865,"ironic":5866,"drives":5867,"sevent":5868,"/>(":5869,"quote":5870,"topic":5871,"diamond":5872,"nd":5873,"march":5874,"interpretation":5875,"garden":5876,"ib":5877,"ske":5878,"chew":5879,"brie":5880,"medical":5881,"guessing":5882,"respond":5883,"zilla":5884,"holo":5885,"aude":5886,"italy":5887,"millions":5888,"expensive":5889,"surrounding":5890,"cen":5891,"dave":5892,"thief":5893,"burns":5894,"enor":5895,"absor":5896,"belongs":5897,"wicked":5898,"spielberg":5899,"karen":5900,"suits":5901,"doors":5902,"opened":5903,"passes":5904,"rooms":5905,"grandfather":5906,"colorful":5907,"pseu":5908,"intentions":5909,"icing":5910,"advan":5911,"comedian":5912,"myth":5913,"cig":5914,"chases":5915,"erson":5916,"ishment":5917,"posing":5918,"appearances":5919,"spoiled":5920,"accepted":5921,"bart":5922,"econ":5923,"sab":5924,"arrog":5925,"vivid":5926,"hem":5927,"gio":5928,"valent":5929,"royal":5930,"rates":5931,"beer":5932,"wasting":5933,"elabor":5934,"noted":5935,"inj":5936,"loid":5937,"sus":5938,"shed":5939,"cheek":5940,"custo":5941,"vicious":5942,"godzilla":5943,"ik":5944,"spider":5945,"fashioned":5946,"protagonists":5947,"duke":5948,"belle":5949,"hipp":5950,"rial":5951,"dislike":5952,"cringe":5953,"restaurant":5954,"gic":5955,"istan":5956,"spark":5957,"affection":5958,"blance":5959,"burt":5960,"cycle":5961,"engine":5962,"2005":5963,"suggests":5964,"destruction":5965,"econom":5966,"etern":5967,"gall":5968,"lest":5969,"irony":5970,"quis":5971,"duck":5972,"reasonable":5973,"burton":5974,"thrillers":5975,"transfer":5976,"?).":5977,"spending":5978,"drum":5979,"atmospheric":5980,"stiff":5981,"beating":5982,"heat":5983,"cake":5984,"explosions":5985,"homage":5986,"immense":5987,"canada":5988,"sque":5989,"convey":5990,"oblig":5991,"bearable":5992,"eyed":5993,"adol":5994,"trau":5995,"guid":5996,"listed":5997,"obsession":5998,"redem":5999,"widow":6000,"dign":6001,"believably":6002,"boredom":6003,"crook":6004,"mble":6005,"upset":6006,"spar":6007,"videos":6008,"grey":6009,"destro":6010,"asp":6011,"attempted":6012,"physically":6013,"andrew":6014,"tricks":6015,"elsewhere":6016,"existent":6017,"distribut":6018,"bears":6019,"icting":6020,"psychiat":6021,"performers":6022,"wave":6023,"haha":6024,"personalities":6025,"dunne":6026,"chicago":6027,"ila":6028,"selfish":6029,"jection":6030,"australia":6031,":)":6032,"lovable":6033,"antics":6034,"hardy":6035,"importance":6036,"racism":6037,"insulting":6038,"ambitious":6039,"metaphor":6040,"pon":6041,"tied":6042,"rely":6043,"toile":6044,"nose":6045,"foster":6046,"ggy":6047,"brow":6048,"weakness":6049,"troubled":6050,"aired":6051,"tam":6052,"stain":6053,"vised":6054,"mst3":6055,"fic":6056,"marke":6057,"shadows":6058,"korean":6059,"carpenter":6060,"tons":6061,"manager":6062,"instantly":6063,"isms":6064,"curren":6065,"consists":6066,"torial":6067,"philosoph":6068,"outrageous":6069,"hing":6070,"hbo":6071,"fields":6072,"smoke":6073,"replaced":6074,"rive":6075,"presum":6076,"midnight":6077,"grows":6078,"tire":6079,"aced":6080,"stood":6081,"trial":6082,"closely":6083,"bobby":6084,"techniques":6085,"bogart":6086,"explicit":6087,"pitt":6088,"button":6089,"month":6090,"caust":6091,"prisoners":6092,"scientists":6093,"eager":6094,"hous":6095,"uninspired":6096,"josh":6097,"craz":6098,"glory":6099,"specific":6100,"prostitute":6101,"glimpse":6102,"electric":6103,"ocean":6104,"jazz":6105,"allo":6106,"asingly":6107,"staff":6108,"strike":6109,"health":6110,"waters":6111,"chest":6112,"carefully":6113,"miserably":6114,"patch":6115,"thick":6116,"ambig":6117,"myst":6118,"overcome":6119,"burning":6120,"egg":6121,"pam":6122,"pear":6123,"guilt":6124,"relax":6125,"aney":6126,"nik":6127,"typically":6128,"gradu":6129,"columbo":6130,"inc":6131,"claude":6132,"pses":6133,"lessons":6134,"turing":6135,"split":6136,"repeatedly":6137,"charisma":6138,"controversial":6139,"pound":6140,"forgive":6141,"suspects":6142,"boom":6143,"relent":6144,"territory":6145,"curiosity":6146,"ology":6147,"attraction":6148,"jumps":6149,"mim":6150,"tool":6151,"horrend":6152,"catherine":6153,"thrilling":6154,"refuses":6155,"mund":6156,"carter":6157,"ception":6158,"cameron":6159,"pacino":6160,"investigation":6161,"wack":6162,"cham":6163,"flag":6164,"scripted":6165,"shaw":6166,"bergman":6167,"blows":6168,"hoffman":6169,"phenomen":6170,"bach":6171,"egy":6172,"arnold":6173,"unforgettable":6174,"math":6175,"combat":6176,"consequences":6177,"1950s":6178,"hooked":6179,"neighborhood":6180,"sadd":6181,"emily":6182,"counters":6183,"eerie":6184,"obscure":6185,"cary":6186,"jona":6187,"mouse":6188,"infamous":6189,"inexplic":6190,"spector":6191,"busy":6192,"larger":6193,"chester":6194,"medium":6195,"!!!!!!!!":6196,"angeles":6197,"toss":6198,"handful":6199,"wyck":6200,"nancy":6201,"hundreds":6202,"jonathan":6203,"dled":6204,"gren":6205,"noble":6206,"exor":6207,"plague":6208,"blade":6209,"males":6210,"ralph":6211,"repetitive":6212,"triumph":6213,"mp":6214,"confron":6215,"enda":6216,"clay":6217,"blan":6218,"caric":6219,"subplot":6220,"slick":6221,"arrive":6222,"\"...":6223,"icop":6224,"essence":6225,"bleak":6226,"saves":6227,"helicop":6228,"wake":6229,"2006":6230,"secrets":6231,"hearts":6232,"increasingly":6233,"mode":6234,"detr":6235,"matthew":6236,"gotta":6237,"persona":6238,"morris":6239,"lucas":6240,"1970s":6241,"intensity":6242,"mst3k":6243,"oke":6244,"bless":6245,"superfic":6246,"hunting":6247,"gie":6248,"hitting":6249,"racial":6250,"tender":6251,"adequate":6252,"dent":6253,"survival":6254,"concerns":6255,"iii":6256,"inevitable":6257,"poverty":6258,"vig":6259,"coast":6260,"killings":6261,"mighty":6262,"satisfied":6263,"abrup":6264,"bible":6265,"claire":6266,"beings":6267,"stanwyck":6268,"catholic":6269,"redemption":6270,"armed":6271,"puppet":6272,"jessica":6273,"briefly":6274,"guts":6275,"logue":6276,"opposed":6277,"dropped":6278,"adapted":6279,"lifest":6280,"horses":6281,"ensemble":6282,"portrait":6283,"bury":6284,"identify":6285,"banks":6286,"jumping":6287,"hysterical":6288,"fitting":6289,"ingen":6290,"stress":6291,"unintentionally":6292,"aft":6293,"matrix":6294,"buried":6295,"sings":6296,"ification":6297,"suffered":6298,"raped":6299,"empire":6300,"possessed":6301,"admittedly":6302,"ables":6303,"activ":6304,"shower":6305,"willis":6306,"voy":6307,"audio":6308,"develops":6309,"daughters":6310,"bullet":6311,"dubbing":6312,"shirt":6313,"conspiracy":6314,"pap":6315,"sag":6316,"appl":6317,"agents":6318,"ako":6319,"highlights":6320,"enjoyment":6321,"smug":6322,"meaningful":6323,"rogers":6324,"achieved":6325,"newspaper":6326,"worker":6327,"revelation":6328,"punk":6329,"limit":6330,"birthday":6331,"karloff":6332,"soviet":6333,"scars":6334,"afore":6335,"rocky":6336,"dragged":6337,"encounters":6338,"inger":6339,"ourselves":6340,"crum":6341,"ishes":6342,"talked":6343,"bucks":6344,"sinatra":6345,"launch":6346,"gather":6347,"crystal":6348,"hul":6349,"lol":6350,"holly":6351,"rious":6352,"trite":6353,"cole":6354,"needless":6355,"harold":6356,"allowing":6357,"importantly":6358,"salv":6359,"ifies":6360,"eval":6361,"engage":6362,"pleasantly":6363,"basement":6364,"melodramatic":6365,"cabin":6366,"jamie":6367,"onse":6368,"afford":6369,"library":6370,"caricature":6371,"det":6372,"cardboard":6373,"breathtaking":6374,"ignored":6375,"gift":6376,"closed":6377,"reasonably":6378,"pride":6379,"dud":6380,"uct":6381,"soph":6382,"berry":6383,"serving":6384,"marine":6385,"hype":6386,"chainsaw":6387,"navy":6388,"exercise":6389,"egypt":6390,"jet":6391,"horrors":6392,"eccentric":6393,"cart":6394,"jol":6395,"ops":6396,"returning":6397,"restrain":6398,"vet":6399,"therland":6400,"maf":6401,"farce":6402,"sexually":6403,"wishes":6404,"picking":6405,"survivors":6406,"childish":6407,"bby":6408,"nun":6409,"resort":6410,"direc":6411,"holocaust":6412,"yel":6413,"imit":6414,"unit":6415,"hibit":6416,"remaining":6417,"university":6418,"vulner":6419,"pseudo":6420,"2nd":6421,"?),":6422,"cities":6423,"err":6424,"quaid":6425,"warn":6426,"creators":6427,"sadistic":6428,"drunken":6429,"motivation":6430,"mafia":6431,"staged":6432,"accompan":6433,"unpleasant":6434,"......":6435,"beaten":6436,"clar":6437,"dancer":6438,"liking":6439,"syl":6440,"eleg":6441,"response":6442,"pants":6443,"terrifying":6444,"sutherland":6445,"planned":6446,"immig":6447,"fifteen":6448,"stretch":6449,"affected":6450,"snake":6451,"bren":6452,"labor":6453,"sends":6454,"terry":6455,"coincid":6456,"hypo":6457,"competition":6458,"altogether":6459,"prejud":6460,"breasts":6461,"stereotype":6462,"loser":6463,"credited":6464,"portion":6465,"individuals":6466,"associated":6467,"sneak":6468,"notorious":6469,"wan":6470,"blast":6471,"pulp":6472,"scarlet":6473,"travels":6474,"rushed":6475,"duty":6476,"rank":6477,"zel":6478,"insist":6479,"cruise":6480,"ranks":6481,"walls":6482,"revealing":6483,"broadcast":6484,"thel":6485,"cos":6486,"countless":6487,"tortured":6488,"fist":6489,"kay":6490,"sally":6491,"inspector":6492,"returned":6493,"atl":6494,"covers":6495,"overlooked":6496,"shortly":6497,"possibility":6498,"tiger":6499,"reel":6500,"vich":6501,"watches":6502,"blur":6503,"blowing":6504,"accomplished":6505,"hire":6506,"ix":6507,"ellar":6508,"stole":6509,"believing":6510,"specif":6511,"sacrif":6512,"documentaries":6513,"inser":6514,"characterization":6515,"spots":6516,"twins":6517,"nazis":6518,"sacrifice":6519,"jake":6520,"ramp":6521,"peak":6522,"notes":6523,"irene":6524,"precise":6525,"kings":6526,"drown":6527,"digital":6528,"charismatic":6529,"toilet":6530,"ancy":6531,"keeper":6532,"funeral":6533,"lacked":6534,"engaged":6535,"doubted":6536,"dialogs":6537,"hudson":6538,"iation":6539,"wright":6540,"backdrop":6541,"norman":6542,"annoyed":6543,"wannabe":6544,"liberal":6545,"craig":6546,"user":6547,"precious":6548,"subsequent":6549,"peck":6550,"conserv":6551,"offering":6552,"....<":6553,"calm":6554,"hoped":6555,"owen":6556,"rapid":6557,"circus":6558,"crisis":6559,"arab":6560,"enters":6561,"wet":6562,"checking":6563,"parent":6564,"campbell":6565,"cist":6566,"ique":6567,"tad":6568,"oma":6569,"fatal":6570,"drags":6571,"cof":6572,"rell":6573,"iser":6574,"rio":6575,"germans":6576,"stanley":6577,"transport":6578,"swedish":6579,"stairs":6580,"magazine":6581,"ligh":6582,"projects":6583,"dani":6584,"juven":6585,"population":6586,"traveling":6587,"occurs":6588,"citizen":6589,"vous":6590,"icient":6591,"quel":6592,"horrid":6593,"extended":6594,"merit":6595,"mistaken":6596,"idiots":6597,"splen":6598,"discovery":6599,"robbery":6600,"spooky":6601,"unbelievably":6602,"doz":6603,"condu":6604,"worlds":6605,"godfather":6606,"narrator":6607,"bold":6608,"miscast":6609,"reluct":6610,"grav":6611,"cler":6612,"afterwards":6613,"ashes":6614,"emma":6615,"causing":6616,"heroic":6617,"tremendous":6618,"enem":6619,"ata":6620,"liar":6621,"raj":6622,"corpse":6623,"morrow":6624,"bene":6625,"politically":6626,"providing":6627,"fired":6628,"mile":6629,"isation":6630,"argue":6631,"brea":6632,"builds":6633,"strikes":6634,"kudos":6635,"iraq":6636,"invisible":6637,"holy":6638,"gian":6639,"wonders":6640,"stronger":6641,"********":6642,"terrorists":6643,"officers":6644,"presumably":6645,"brav":6646,"ader":6647,"holl":6648,"dub":6649,"producing":6650,"cycl":6651,"cameos":6652,"lawrence":6653,"instit":6654,"removed":6655,"dutch":6656,"asion":6657,"excl":6658,"prote":6659,"realise":6660,"hyp":6661,"generous":6662,"brilliance":6663,"20th":6664,"signs":6665,"resembles":6666,"dolph":6667,"lic":6668,"poison":6669,"frag":6670,"assa":6671,"phony":6672,"mummy":6673,"muse":6674,"reject":6675,"sidekick":6676,"drivel":6677,"thrills":6678,"groups":6679,"swing":6680,"resour":6681,"musicals":6682,"flawless":6683,"util":6684,"exposed":6685,"clues":6686,"planning":6687,"sticks":6688,"krist":6689,"jaws":6690,"throat":6691,"''":6692,"bie":6693,"dere":6694,"jere":6695,"tc":6696,"xon":6697,"disease":6698,"pretend":6699,"politic":6700,"luckily":6701,"sacrific":6702,"flies":6703,"ingu":6704,"whit":6705,"terior":6706,"attend":6707,"yester":6708,"wallow":6709,"horrendous":6710,"kitch":6711,"beats":6712,"iments":6713,"huh":6714,"dialogues":6715,"fancy":6716,"landscape":6717,"elderly":6718,"superficial":6719,"flee":6720,"hou":6721,"roof":6722,"agan":6723,"tea":6724,"careers":6725,"misses":6726,"gging":6727,"dealt":6728,"meaningless":6729,"panic":6730,"wallace":6731,"arrested":6732,"divorce":6733,"compassion":6734,"bent":6735,"hardcore":6736,"ggie":6737,"leather":6738,"snip":6739,"13th":6740,"errors":6741,"daring":6742,"forbid":6743,"usions":6744,"generic":6745,"investigate":6746,"commercials":6747,"frustrated":6748,"enemies":6749,"rics":6750,"reactions":6751,"ptic":6752,"wondered":6753,"menacing":6754,"spirited":6755,"photographed":6756,"attracted":6757,"gradually":6758,"evident":6759,"glow":6760,"bean":6761,"astro":6762,"ridiculously":6763,"requires":6764,"companion":6765,"hatred":6766,"symbolism":6767,"endearing":6768,"35":6769,"lun":6770,"revi":6771,"alt":6772,"noise":6773,"coy":6774,"fulci":6775,"suspicious":6776,"require":6777,"construction":6778,"mars":6779,"pau":6780,"tha":6781,"represents":6782,"diane":6783,"worn":6784,"worried":6785,"interaction":6786,"valley":6787,"genres":6788,"'.<":6789,"bble":6790,"select":6791,"lip":6792,"paran":6793,"embr":6794,"formed":6795,"2004":6796,"rocks":6797,"photographer":6798,"prisoner":6799,"scientific":6800,"continued":6801,"chicken":6802,"conceived":6803,"currently":6804,"beneath":6805,"dal":6806,"gid":6807,"advance":6808,"undoubted":6809,"performing":6810,"tones":6811,"airplane":6812,"futur":6813,"depression":6814,"bine":6815,"iently":6816,"heist":6817,"attached":6818,"differences":6819,"harder":6820,"morality":6821,"styles":6822,"grandmother":6823,"cellu":6824,"argument":6825,"conversations":6826,"baker":6827,"directorial":6828,"splendid":6829,"!.":6830,"vine":6831,"stir":6832,"accused":6833,"aman":6834,"root":6835,"manhatt":6836,"pleased":6837,"cron":6838,"iously":6839,"messages":6840,"freeman":6841,"miserable":6842,"appalling":6843,"hmm":6844,"orders":6845,"height":6846,"1999":6847,"devast":6848,"constructed":6849,"ruthless":6850,"lime":6851,"bug":6852,"basket":6853,"promin":6854,"sentence":6855,"reynold":6856,"answered":6857,"resolution":6858,"coffee":6859,"adams":6860,"areas":6861,"veness":6862,"screams":6863,"angela":6864,"tunes":6865,"threatening":6866,"strictly":6867,"celluloid":6868,"50s":6869,"rist":6870,"resur":6871,"chaney":6872,"measure":6873,"displays":6874,"attle":6875,"titan":6876,"easier":6877,"ticket":6878,"souls":6879,"honesty":6880,"exaggerated":6881,"jealous":6882,"bod":6883,"foul":6884,"kish":6885,"thunder":6886,"sail":6887,"distance":6888,"historic":6889,"loosely":6890,"ala":6891,"album":6892,"disjoint":6893,"casual":6894,"bullets":6895,"surrounded":6896,"nelson":6897,"doomed":6898,"lang":6899,"modest":6900,"unwatchable":6901,"timeless":6902,"spare":6903,"pulling":6904,"admire":6905,"freaks":6906,"taxi":6907,"thumbs":6908,"kurt":6909,"gothic":6910,"aforementioned":6911,"rd":6912,"dee":6913,"ello":6914,"webs":6915,"ellen":6916,"worthless":6917,"pressure":6918,"nett":6919,"squad":6920,"streep":6921,"mall":6922,"threw":6923,"anded":6924,"scors":6925,"comics":6926,"estate":6927,"quer":6928,"blank":6929,"cared":6930,"breed":6931,"kubrick":6932,"occurred":6933,"agreed":6934,"honey":6935,"vit":6936,"leo":6937,"whis":6938,"anyways":6939,"giallo":6940,"ensible":6941,"trio":6942,"rubber":6943,"laws":6944,"decisions":6945,"settling":6946,"isolated":6947,"trained":6948,"escaped":6949,"achievement":6950,"philosophy":6951,"derek":6952,"manhattan":6953,"cards":6954,"chances":6955,"wives":6956,"robe":6957,"props":6958,"offended":6959,"nail":6960,"swear":6961,"jewel":6962,"collabor":6963,"fingers":6964,"eighties":6965,"demands":6966,"corporate":6967,"lers":6968,"infect":6969,"lean":6970,"fears":6971,"leton":6972,"detailed":6973,"popcorn":6974,"scorsese":6975,"elo":6976,"orches":6977,"/>'":6978,"blend":6979,"kidding":6980,"nah":6981,"superbly":6982,"drops":6983,"nas":6984,"outcome":6985,"goo":6986,"xture":6987,"damme":6988,"primarily":6989,"ironically":6990,"cried":6991,"rural":6992,"wag":6993,"gol":6994,"blues":6995,"stark":6996,"subjects":6997,"1940":6998,"absence":6999,"tube":7000,"robots":7001,"yellow":7002,"undoubtedly":7003,"reynolds":7004,"gimm":7005,"isra":7006,"wig":7007,"goers":7008,"neu":7009,"uded":7010,"sadness":7011,"explore":7012,"brains":7013,"recorded":7014,"reaches":7015,"kitchen":7016,"hick":7017,"orphan":7018,"butch":7019,"meg":7020,"istically":7021,"burg":7022,"sloppy":7023,"warrior":7024,"disjointed":7025,"icy":7026,"ifying":7027,"distant":7028,"confident":7029,"explored":7030,"vengeance":7031,"glasses":7032,"lifestyle":7033,"implausible":7034,"fru":7035,"grain":7036,"temper":7037,"annie":7038,"reduced":7039,"(..":7040,"bc":7041,"kil":7042,"tank":7043,"atom":7044,"devi":7045,"pran":7046,"foc":7047,"matth":7048,"roller":7049,"communist":7050,"defense":7051,"washed":7052,"robinson":7053,"stinker":7054,"birds":7055,"ont":7056,"prede":7057,"ireland":7058,"parad":7059,"hopkins":7060,"nearby":7061,"discussion":7062,"musc":7063,"tel":7064,"quent":7065,"loads":7066,"loaded":7067,"bourne":7068,"specifically":7069,"predecess":7070,"mour":7071,"asha":7072,"arc":7073,"wont":7074,"skull":7075,"facing":7076,"contrary":7077,"recognition":7078,"kn":7079,"zed":7080,"eries":7081,"redi":7082,"heim":7083,"1930":7084,"forms":7085,"tracks":7086,"unky":7087,"gangsters":7088,"distracting":7089,"models":7090,"jeremy":7091,"affl":7092,"cameras":7093,"scores":7094,"biography":7095,"gimmick":7096,"vall":7097,"devoid":7098,"notably":7099,"weather":7100,"polish":7101,"concerning":7102,"executive":7103,"clumsy":7104,"zing":7105,"argen":7106,"scot":7107,"idy":7108,"duo":7109,"delivering":7110,"1930s":7111,"intrigue":7112,"curtis":7113,"elaborate":7114,"yr":7115,"incoherent":7116,"alfred":7117,"assem":7118,"edly":7119,"leigh":7120,"bever":7121,"strangers":7122,"draws":7123,"complaint":7124,"bathroom":7125,"agrees":7126,"captivating":7127,"installment":7128,"stall":7129,"esty":7130,"christie":7131,"retro":7132,"adoles":7133,"ilted":7134,"roth":7135,"illian":7136,"staying":7137,"inventive":7138,"alternative":7139,"mason":7140,"illegal":7141,"defe":7142,"warren":7143,"glamor":7144,"classical":7145,"tonight":7146,"hopper":7147,"melan":7148,"1960":7149,"receive":7150,"russia":7151,"pushed":7152,"harrison":7153,"griffith":7154,"ingredi":7155,"supre":7156,"shining":7157,"spain":7158,"humili":7159,"regul":7160,"earned":7161,"odds":7162,"contained":7163,"sales":7164,"furthermore":7165,"proceedings":7166,"reflection":7167,"financial":7168,"aspir":7169,"raid":7170,"simil":7171,"empath":7172,"2003":7173,"subtlety":7174,"chaos":7175,"juvenile":7176,"awe":7177,"illy":7178,"forgiven":7179,"illness":7180,"urge":7181,"cot":7182,"gerald":7183,"menace":7184,"harvey":7185,"promised":7186,"savage":7187,"90s":7188,"carn":7189,"planes":7190,"explaining":7191,"sensu":7192,"1980s":7193,"bronson":7194,"argento":7195,"bass":7196,"iveness":7197,"lips":7198,"unoriginal":7199,"overdone":7200,"partly":7201,"motives":7202,"legit":7203,"grotes":7204,"influenced":7205,"psychotic":7206,"laurel":7207,"udge":7208,"visions":7209,"masters":7210,"miike":7211,"aimed":7212,"opinions":7213,"depressed":7214,"passionate":7215,"devoted":7216,"--------":7217,"benefit":7218,"deliberately":7219,"cigaret":7220,"dignity":7221,"philosophical":7222,"titanic":7223,"vest":7224,"burned":7225,"darker":7226,"dynamic":7227,"enormous":7228,"oscars":7229,"walken":7230,"hilariously":7231,"disturbed":7232,"apocalypse":7233,"helicopter":7234,"rust":7235,"...)":7236,"psis":7237,"syno":7238,"rising":7239,"instant":7240,"recognized":7241,"winds":7242,"hung":7243,"plate":7244,"plum":7245,"acknow":7246,"smaller":7247,"louise":7248,"mistress":7249,"matched":7250,"barrymore":7251,"similarly":7252,"mand":7253,"repul":7254,"asia":7255,"dian":7256,"centered":7257,"mayor":7258,"solution":7259,"mixture":7260,"andrews":7261,"involvement":7262,"kor":7263,"impro":7264,"hoo":7265,"composed":7266,"traff":7267,"shan":7268,"goodness":7269,"writes":7270,"clothing":7271,"jesse":7272,"francisco":7273,"\";":7274,"dating":7275,"daddy":7276,"hates":7277,"iter":7278,"adul":7279,"filling":7280,"distingu":7281,"oses":7282,"vulgar":7283,"scope":7284,"cinder":7285,"notion":7286,"cannon":7287,"strang":7288,"explosion":7289,"trees":7290,"unfolds":7291,"seventies":7292,"ibly":7293,"itudes":7294,"decor":7295,"compo":7296,"cox":7297,"artific":7298,"carrey":7299,"thoughtful":7300,"couples":7301,"slightest":7302,"potentially":7303,"square":7304,"intrigued":7305,"progresses":7306,"lifting":7307,"blatant":7308,"nell":7309,"encing":7310,"verted":7311,"nee":7312,"nervous":7313,"airport":7314,"secretary":7315,"primary":7316,"scheme":7317,"victoria":7318,"rug":7319,"livan":7320,"bye":7321,"eves":7322,"myers":7323,"murderous":7324,"developing":7325,"cinematographer":7326,"sandra":7327,"alexander":7328,"abysm":7329,"kh":7330,"ctive":7331,"guests":7332,"romero":7333,"amazon":7334,"psychopath":7335,"defend":7336,"margaret":7337,"mtv":7338,"inch":7339,"improved":7340,"geo":7341,"suited":7342,"izable":7343,"!!!!!":7344,"sidney":7345,"failing":7346,"delicious":7347,"reached":7348,"practice":7349,"discuss":7350,"innovative":7351,"cingly":7352,"inhabit":7353,"onna":7354,"igner":7355,"graham":7356,"creativity":7357,"sullivan":7358,"similarities":7359,"arrival":7360,"campa":7361,"resemblance":7362,"segments":7363,"poetry":7364,"arrogant":7365,"synopsis":7366,"bones":7367,"ental":7368,"amuse":7369,"visiting":7370,"endings":7371,"zzy":7372,"dimension":7373,"trailers":7374,"gloss":7375,"consistently":7376,"frustrating":7377,"phantom":7378,"bernard":7379,"brig":7380,"unbearable":7381,"settle":7382,"compli":7383,"wax":7384,"gregory":7385,"choreography":7386,"yesterday":7387,"\"-":7388,"june":7389,"rer":7390,"sume":7391,"guitar":7392,"emper":7393,"twel":7394,"garner":7395,"2002":7396,"global":7397,"doro":7398,"cassave":7399,"translation":7400,"dwar":7401,"eff":7402,"lur":7403,"smar":7404,"inane":7405,"stellar":7406,"vies":7407,"uneven":7408,"poll":7409,"connor":7410,"convol":7411,"bleed":7412,"lotte":7413,"eastern":7414,"confid":7415,"damage":7416,"movements":7417,"commented":7418,"equip":7419,"mesmer":7420,"shelf":7421,"candid":7422,"dinosaurs":7423,"dil":7424,"taught":7425,"zor":7426,"rex":7427,"lyrics":7428,"bearing":7429,"icon":7430,"tee":7431,"pros":7432,"enjoys":7433,"namely":7434,"shield":7435,"ginger":7436,"watson":7437,"incidentally":7438,"climactic":7439,"stooges":7440,"phrase":7441,"')":7442,"inse":7443,"aggress":7444,"blake":7445,"temple":7446,"operation":7447,"education":7448,"sung":7449,"thal":7450,"convincingly":7451,"kicked":7452,"bee":7453,"neth":7454,"prey":7455,"buddies":7456,"elimin":7457,"jews":7458,"ears":7459,"nause":7460,"mos":7461,"illusion":7462,"boob":7463,"izo":7464,"izations":7465,"aneously":7466,"2007":7467,"pays":7468,"suggested":7469,"collap":7470,"bite":7471,"cd":7472,"yawn":7473,"assum":7474,"orange":7475,"elic":7476,"manuel":7477,"exotic":7478,"species":7479,"flav":7480,"performer":7481,"useful":7482,"niro":7483,"purchase":7484,"buildings":7485,"judging":7486,"transformation":7487,"pump":7488,"charlotte":7489,"guards":7490,"slave":7491,"luc":7492,"towns":7493,"promises":7494,"imagined":7495,"immort":7496,"solely":7497,"frequent":7498,"cinderella":7499,"cav":7500,"tomorrow":7501,"keith":7502,"secondly":7503,"engross":7504,"exploit":7505,"1990":7506,"amounts":7507,"dedicated":7508,"dorothy":7509,"3rd":7510,"vegas":7511,"marked":7512,"parties":7513,"chronic":7514,"jordan":7515,"mitchum":7516,"jenny":7517,"parallel":7518,"simplistic":7519,"aes":7520,"unintentional":7521,"roe":7522,"eva":7523,"pretending":7524,"highest":7525,"copies":7526,"cruci":7527,"suitable":7528,"celebrity":7529,"bates":7530,"uable":7531,"iring":7532,"sounding":7533,"logically":7534,"chapter":7535,"accompanied":7536,"grotesque":7537,"tier":7538,"thet":7539,"rec":7540,"reed":7541,"maggie":7542,"neo":7543,"eston":7544,"splatter":7545,"swimming":7546,"ril":7547,"rier":7548,"persu":7549,"wrapped":7550,"balanced":7551,"bott":7552,"teaching":7553,"contract":7554,"bonus":7555,"shirley":7556,"poetic":7557,"cun":7558,"lance":7559,"zi":7560,"enberg":7561,"whim":7562,"wore":7563,"cream":7564,"steel":7565,"limits":7566,"channels":7567,"fooled":7568,"witnessed":7569,"remarkably":7570,"succeeded":7571,"employe":7572,"houses":7573,"equipment":7574,"kers":7575,"rud":7576,"randy":7577,"ani":7578,"gged":7579,"judy":7580,"rita":7581,"comparing":7582,"pson":7583,"mario":7584,"invasion":7585,"ruins":7586,"shake":7587,"profession":7588,"responsibility":7589,"formulaic":7590,"challenging":7591,"hypnot":7592,"matthau":7593,"campaign":7594,"convoluted":7595,"sits":7596,"recru":7597,"irrelevant":7598,"trum":7599,"coat":7600,"pric":7601,"drill":7602,"understandable":7603,"latin":7604,"principal":7605,"website":7606,"rational":7607,"errol":7608,"tower":7609,"edition":7610,"brat":7611,"butler":7612,"exchange":7613,"pert":7614,"kicking":7615,"brutally":7616,"pushing":7617,"fetched":7618,"vise":7619,"displayed":7620,"blond":7621,"serge":7622,"despair":7623,"mons":7624,"downhill":7625,"barrel":7626,"kidnap":7627,"nightmares":7628,"citizens":7629,"psychiatrist":7630,"andal":7631,"vie":7632,"kell":7633,"abdu":7634,"preced":7635,"monot":7636,"boxing":7637,"survived":7638,"catching":7639,"baldwin":7640,"wacky":7641,"dozens":7642,"tcm":7643,"echo":7644,"gur":7645,"tame":7646,"republic":7647,"encies":7648,"enchant":7649,"quinn":7650,"spike":7651,"persons":7652,"existed":7653,"journalist":7654,"mup":7655,"swi":7656,"ule":7657,"wizard":7658,"excruci":7659,"joined":7660,"obli":7661,"pola":7662,"slice":7663,"defined":7664,"punishment":7665,"resolved":7666,"rabbit":7667,"nt":7668,"quit":7669,"observ":7670,"contrad":7671,"stinks":7672,"rants":7673,"lifel":7674,"fantas":7675,"introduces":7676,"civilization":7677,"adorable":7678,"hughes":7679,"excruciating":7680,"..<":7681,"wen":7682,"encour":7683,"characteristic":7684,"colin":7685,"bargain":7686,"painted":7687,"sweep":7688,"bottle":7689,"nomination":7690,"gad":7691,"tact":7692,"endure":7693,"describes":7694,"hed":7695,"hut":7696,"retain":7697,"relies":7698,"represented":7699,"asto":7700,"troma":7701,"backs":7702,"addict":7703,"compens":7704,"????":7705,"photograph":7706,"equival":7707,"crucial":7708,"arrived":7709,"wrestling":7710,"rag":7711,"lift":7712,"august":7713,"fried":7714,"undance":7715,"correctly":7716,"transc":7717,"montage":7718,"proceeds":7719,"priceless":7720,"dile":7721,"hank":7722,"alley":7723,"alert":7724,"mankind":7725,"shor":7726,"justify":7727,"cancer":7728,"servant":7729,"depicts":7730,"biased":7731,"countryside":7732,"raymond":7733,"historically":7734,"drawing":7735,"safety":7736,"beverly":7737,"twelve":7738,"rang":7739,"static":7740,"abort":7741,"cope":7742,"rail":7743,"feld":7744,"snakes":7745,"austin":7746,"emperor":7747,"juni":7748,"pom":7749,"rats":7750,"uh":7751,"sustain":7752,"fundam":7753,"understated":7754,"optim":7755,"staring":7756,"glenn":7757,"judg":7758,"recognizable":7759,"thompson":7760,"rotten":7761,"____":7762,"incompetent":7763,"preview":7764,"guin":7765,"newly":7766,"ava":7767,"heading":7768,"dolls":7769,"hideous":7770,"educated":7771,"pearl":7772,"inappropriate":7773,"tribe":7774,"lacklust":7775,"covering":7776,"considerable":7777,"banned":7778,"dropping":7779,"hollow":7780,"babe":7781,"trashy":7782,"chamber":7783,"caut":7784,"fisher":7785,"reunion":7786,"imperson":7787,"diana":7788,"corman":7789,"helpless":7790,"nails":7791,"prize":7792,"madonna":7793,"hanks":7794,"senses":7795,"1960s":7796,"quisite":7797,"legitim":7798,"ilton":7799,"rope":7800,"absent":7801,"attitudes":7802,"alongside":7803,"neglect":7804,"rupted":7805,"employed":7806,"revolutionary":7807,"abysmal":7808,"react":7809,"grind":7810,"marc":7811,"slum":7812,"resulting":7813,"asylum":7814,"commander":7815,"advertising":7816,"museum":7817,"bson":7818,"gers":7819,"wrench":7820,"inf":7821,"enger":7822,"rocket":7823,"geek":7824,"manu":7825,"seeks":7826,"desired":7827,"closet":7828,"vocal":7829,"satir":7830,"sleaze":7831,"homic":7832,"fluff":7833,"colonel":7834,"inferior":7835,"riveting":7836,"ox":7837,"pha":7838,"thugs":7839,"tooth":7840,"homeless":7841,"flop":7842,"overwhelming":7843,"guided":7844,"och":7845,"pete":7846,"disappeared":7847,"underlying":7848,"boris":7849,"classes":7850,"archite":7851,"circle":7852,"recording":7853,"spread":7854,"conservative":7855,"bump":7856,"nuts":7857,"tered":7858,"aux":7859,"prepar":7860,"spag":7861,"lowest":7862,"accuracy":7863,"brando":7864,"wounded":7865,"gom":7866,"sappy":7867,"wend":7868,"unsettling":7869,"ela":7870,"wells":7871,"disappear":7872,"junior":7873,"cens":7874,"kie":7875,"forty":7876,"amanda":7877,"feast":7878,"indic":7879,"drey":7880,"treats":7881,"virginia":7882,"nostalgia":7883,"daniels":7884,"hatch":7885,"wink":7886,"icion":7887,"awake":7888,"overrated":7889,"gery":7890,"doug":7891,"scarecrow":7892,"ignorant":7893,"dwarf":7894,"jas":7895,"rr":7896,"vom":7897,"defeat":7898,"akin":7899,"duvall":7900,"horrifying":7901,"simult":7902,"careful":7903,"conditions":7904,"generated":7905,"casts":7906,"catches":7907,"cleverly":7908,"eaten":7909,"kum":7910,"yn":7911,"arian":7912,"idal":7913,"wrap":7914,"hyper":7915,"masterful":7916,"respected":7917,"dirt":7918,"buffs":7919,"leonard":7920,"vaguely":7921,"nostalgic":7922,"immensely":7923,"rice":7924,"wagon":7925,"infl":7926,"acies":7927,"vial":7928,"amid":7929,"deaf":7930,"scoo":7931,"grass":7932,"directs":7933,"turkish":7934,"spoke":7935,"chron":7936,"bedroom":7937,"pitiful":7938,"wealth":7939,"fought":7940,"hints":7941,"ernest":7942,"pee":7943,"grasp":7944,"berlin":7945,"cheating":7946,"triangle":7947,"senseless":7948,"terminator":7949,"foolish":7950,"alternate":7951,"astron":7952,"altman":7953,"pals":7954,"bela":7955,"tering":7956,"nyc":7957,"carrad":7958,"leaders":7959,"hench":7960,"aids":7961,"psychic":7962,"route":7963,"corruption":7964,"composer":7965,"stilted":7966,"estic":7967,"blew":7968,"offs":7969,"steam":7970,"kingdom":7971,"patric":7972,"hamilton":7973,"possibilities":7974,"regarded":7975,"stevens":7976,"motivations":7977,"avery":7978,"mod":7979,"coward":7980,"overacting":7981,"monk":7982,"samura":7983,"nicole":7984,"marketing":7985,"carradine":7986,"bou":7987,"coff":7988,"imo":7989,"ika":7990,"online":7991,"quin":7992,"mentioning":7993,"embarrassment":7994,"choreographed":7995,"hetti":7996,"elegant":7997,"cassavetes":7998,"leck":7999,"kee":8000,"artic":8001,"weakest":8002,"avoided":8003,"doctors":8004,"democr":8005,"equivalent":8006,"wire":8007,"hostage":8008,"perry":8009,"shore":8010,"centers":8011,"cheated":8012,"objects":8013,"clos":8014,"capturing":8015,"twil":8016,"dances":8017,"dys":8018,"concern":8019,"discovering":8020,"kuro":8021,"substit":8022,"behaviour":8023,"artificial":8024,"opp":8025,"pops":8026,"polar":8027,"gabr":8028,"puzzle":8029,"twilight":8030,"wong":8031,"incompreh":8032,"enlight":8033,"roots":8034,"cancel":8035,"valuable":8036,"samuel":8037,"nicholson":8038,"vulnerable":8039,"futuristic":8040,"focusing":8041,"adolescent":8042,"jur":8043,"wine":8044,"attor":8045,"vell":8046,"boll":8047,"tripe":8048,"smack":8049,"norma":8050,"nathan":8051,"rude":8052,"cusack":8053,"wished":8054,"austen":8055,"receives":8056,"micro":8057,"appropriately":8058,"arguably":8059,"hesit":8060,"emphasis":8061,"oe":8062,"swallow":8063,"tends":8064,"tuck":8065,"ardo":8066,"aristo":8067,"grate":8068,"greatness":8069,"peoples":8070,"carrie":8071,"controlled":8072,"guessed":8073,"itors":8074,"mountains":8075,"functional":8076,"tiresome":8077,"attorney":8078,"oy":8079,"reno":8080,"stable":8081,"moody":8082,"disappears":8083,"thru":8084,"lux":8085,"generations":8086,"hamlet":8087,"refu":8088,"antonio":8089,"neuro":8090,"fay":8091,"tracy":8092,"urity":8093,"obtain":8094,"runner":8095,"racing":8096,"popularity":8097,"sherlock":8098,"remained":8099,"employ":8100,"lifted":8101,"patience":8102,"spaghetti":8103,"cue":8104,"wart":8105,"versus":8106,"dod":8107,"whats":8108,"moreover":8109,"showcase":8110,"comedians":8111,"owned":8112,"transition":8113,"surviving":8114,"ritual":8115,"narrow":8116,"closest":8117,"joins":8118,"sixt":8119,"natal":8120,"austro":8121,"beliefs":8122,"bunny":8123,"architect":8124,"consu":8125,"hara":8126,"waited":8127,"label":8128,"pattern":8129,"checked":8130,"authority":8131,"tastes":8132,"clueless":8133,"dilem":8134,"lately":8135,"vas":8136,"toys":8137,"topless":8138,"leans":8139,"advise":8140,"wides":8141,"sue":8142,"apt":8143,"plag":8144,"laughably":8145,"greed":8146,"desperation":8147,"jeffrey":8148,"travol":8149,"sixties":8150,"mack":8151,"sill":8152,"sale":8153,"abomin":8154,"urb":8155,"exquisite":8156,"realizing":8157,"carey":8158,"secondary":8159,"bands":8160,"crocod":8161,"enterprise":8162,"gifted":8163,"confrontation":8164,"incest":8165,"bau":8166,"ement":8167,"hl":8168,"pill":8169,"belly":8170,"acious":8171,"keen":8172,"poke":8173,"condem":8174,"quotes":8175,"claustro":8176,"idel":8177,"ctions":8178,"invited":8179,"flood":8180,"1995":8181,"bruno":8182,"timo":8183,"glorious":8184,"alcoholic":8185,"assigned":8186,"florida":8187,"claustropho":8188,"andro":8189,"elvis":8190,"combine":8191,"antagon":8192,"faults":8193,"angst":8194,"!!<":8195,"!!!<":8196,"ridden":8197,"garbo":8198,"floating":8199,"sensational":8200,"assuming":8201,"ingredients":8202,",,":8203,"==":8204,"kris":8205,"recycl":8206,"issa":8207,"nod":8208,"likewise":8209,"agenda":8210,"mins":8211,"19th":8212,"bitch":8213,"passable":8214,"spirits":8215,"exceptionally":8216,"frustration":8217,"demanding":8218,"severely":8219,"hound":8220,"devices":8221,"otion":8222,"visits":8223,"costello":8224,"backgrounds":8225,"flir":8226,"ensues":8227,"inducing":8228,"samurai":8229,"dill":8230,"lens":8231,"tang":8232,"enh":8233,"therap":8234,"conan":8235,"1968":8236,"healthy":8237,"uated":8238,"insur":8239,"riot":8240,"apple":8241,"plat":8242,"weir":8243,"inda":8244,"misery":8245,"subplots":8246,"voiced":8247,"wishing":8248,"policeman":8249,"questionable":8250,"slip":8251,"representation":8252,"travolta":8253,"pard":8254,"plight":8255,"aled":8256,"illogical":8257,"butter":8258,"pling":8259,"arty":8260,"showdown":8261,"viewings":8262,"smiling":8263,"letters":8264,"lasting":8265,"pursuit":8266,"milk":8267,"1972":8268,"hurts":8269,"warmth":8270,"scarlett":8271,"confidence":8272,"\"!":8273,"wandering":8274,"aron":8275,"behave":8276,"vibr":8277,"ulate":8278,"fever":8279,"rolls":8280,"fires":8281,"satisfy":8282,"jacob":8283,"timothy":8284,"xx":8285,"thread":8286,"edgar":8287,"chen":8288,"clip":8289,"kyle":8290,"1997":8291,"property":8292,"substant":8293,"www":8294,"demonstrates":8295,"ranger":8296,"zes":8297,"isy":8298,"implic":8299,"files":8300,"abc":8301,"visited":8302,"relations":8303,"differently":8304,"household":8305,"mysteries":8306,"zeal":8307,"matches":8308,"boarding":8309,"rendition":8310,"intimate":8311,"astonishing":8312,"hippie":8313,"mundane":8314,"sep":8315,"unfair":8316,"eliness":8317,"schlock":8318,"billed":8319,"appreciation":8320,"mutant":8321,"nicholas":8322,"crazed":8323,"supreme":8324,"yell":8325,"fem":8326,"consequ":8327,"deriv":8328,"martha":8329,"raising":8330,"insanity":8331,"sawa":8332,"meryl":8333,"waves":8334,"sched":8335,"sunshine":8336,"adaptations":8337,"conflicts":8338,"troops":8339,"cracking":8340,"puppets":8341,"inevit":8342,"pages":8343,"seed":8344,"scrap":8345,"marion":8346,"surf":8347,"tomb":8348,"summar":8349,"betrayal":8350,"ponder":8351,"?'":8352,"wret":8353,"inject":8354,"imitation":8355,"haired":8356,"bloom":8357,"dealer":8358,"1979":8359,"beatles":8360,"occasions":8361,"minimum":8362,"forbidden":8363,"dale":8364,"theart":8365,"acid":8366,"acles":8367,"diet":8368,"framed":8369,"mayhem":8370,"raises":8371,"norris":8372,"frankie":8373,"claiming":8374,"wildly":8375,"investigating":8376,"olivia":8377,"experimental":8378,"guarantee":8379,"kent":8380,"isha":8381,"acity":8382,"forcing":8383,"unhappy":8384,"haust":8385,"exhaust":8386,"strings":8387,"flair":8388,"fined":8389,"depicting":8390,"bombs":8391,"fifty":8392,"accomplish":8393,"lemmon":8394,"indulgent":8395,"travesty":8396,"phillip":8397,"cunning":8398,"oured":8399,"seld":8400,"adri":8401,"abby":8402,"hokey":8403,"expo":8404,"perce":8405,"provoc":8406,"joel":8407,"desires":8408,"polished":8409,"literature":8410,"faster":8411,"witnesses":8412,"chicks":8413,"bridges":8414,"bumbling":8415,"exorcist":8416,"saga":8417,"holland":8418,"traffic":8419,"unpredictable":8420,"roc":8421,"ros":8422,"compet":8423,"justin":8424,"awak":8425,"marx":8426,"romp":8427,"shah":8428,"penny":8429,"hungry":8430,"experiments":8431,"methods":8432,"awhile":8433,"eh":8434,"pid":8435,"yi":8436,"abused":8437,"soc":8438,"trace":8439,"exposition":8440,"sheen":8441,"blings":8442,"stores":8443,"ashi":8444,"humble":8445,"heartbreaking":8446,"prompt":8447,"sunset":8448,"stereotyp":8449,"miniseries":8450,"evolution":8451,"phew":8452,"shameless":8453,"resources":8454,")...":8455,"mute":8456,"ological":8457,"phones":8458,"corpses":8459,"relatives":8460,"musicians":8461,"superhero":8462,"messed":8463,"dreary":8464,"damned":8465,"dressing":8466,"tunnel":8467,"ras":8468,"thiev":8469,"unreal":8470,"divine":8471,"marshall":8472,"gibson":8473,"deni":8474,"creator":8475,"sweat":8476,"secretly":8477,"businessman":8478,"loneliness":8479,"miracle":8480,"doris":8481,"prepare":8482,"bravo":8483,"simultaneously":8484,"essa":8485,"shre":8486,"deranged":8487,"mony":8488,"engers":8489,"randomly":8490,"crashes":8491,"potter":8492,"attered":8493,"challenged":8494,"gentleman":8495,"excessive":8496,"huston":8497,",<":8498,"eis":8499,"stale":8500,"rides":8501,"exceed":8502,"este":8503,"annoy":8504,"teaches":8505,"ethnic":8506,"educational":8507,"trademark":8508,"pierre":8509,"ae":8510,"pad":8511,"pour":8512,"theor":8513,"eras":8514,"frances":8515,"getic":8516,"lasted":8517,"purchased":8518,"1998":8519,"wolves":8520,"idio":8521,"borrowed":8522,"activities":8523,"hogan":8524,"nees":8525,"meas":8526,"exhibit":8527,"charged":8528,"astically":8529,"disgrace":8530,"nerd":8531,"tempt":8532,"snatch":8533,"1984":8534,"karate":8535,"transp":8536,"crisp":8537,"exploration":8538,"rhyth":8539,"assault":8540,"mam":8541,"yelling":8542,"vein":8543,"vian":8544,"scifi":8545,"perman":8546,"shear":8547,"matically":8548,"chooses":8549,"musician":8550,"drif":8551,"garfield":8552,"purposes":8553,"squir":8554,"reaching":8555,"neighbour":8556,"nonsens":8557,"invented":8558,"premiere":8559,"ambiguous":8560,"gap":8561,"mick":8562,"pus":8563,"rehas":8564,"reign":8565,"eder":8566,"stard":8567,"chand":8568,"bris":8569,"auf":8570,"ieu":8571,"stuart":8572,"bbie":8573,"retired":8574,"photos":8575,"crossing":8576,"phillips":8577,"pale":8578,"unaware":8579,"hoot":8580,"evok":8581,"newcom":8582,"releases":8583,"straightforward":8584,"affairs":8585,"adopted":8586,"enthusiasm":8587,"30s":8588,":-":8589,"frog":8590,"lomb":8591,"rance":8592,"ora":8593,"sele":8594,"dose":8595,"gled":8596,"holden":8597,"signed":8598,"introduce":8599,"dall":8600,"gel":8601,"gable":8602,"ucin":8603,"assure":8604,"undeni":8605,"agency":8606,"elephant":8607,"hayes":8608,"neighbors":8609,"quarter":8610,"homosexuality":8611,"fruit":8612,"derivative":8613,"dazz":8614,"iving":8615,"mast":8616,"sending":8617,"witt":8618,"enhan":8619,"entit":8620,"nightclub":8621,"sling":8622,"regards":8623,"traits":8624,"gym":8625,"portions":8626,"concepts":8627,"seldom":8628,"kas":8629,"oly":8630,"reson":8631,"ghan":8632,"outfit":8633,"pole":8634,"firstly":8635,"valid":8636,"distress":8637,"joey":8638,"pix":8639,"bambi":8640,"prejudice":8641,"exposure":8642,"mia":8643,"uity":8644,"edith":8645,"beware":8646,"adore":8647,"map":8648,"april":8649,"sometime":8650,"clad":8651,"recommendation":8652,"coppola":8653,"swan":8654,"hallucin":8655,"kurosawa":8656,"95":8657,"xter":8658,"oms":8659,"unra":8660,"uplifting":8661,"izer":8662,"performs":8663,"screwed":8664,"smell":8665,"luci":8666,"dylan":8667,"tracking":8668,"ordered":8669,"banal":8670,"eugene":8671,"complaining":8672,"quietly":8673,"aaaa":8674,"tacky":8675,"wretched":8676,"jill":8677,"sway":8678,"chip":8679,"abusive":8680,"dowell":8681,"exped":8682,"click":8683,"horn":8684,"newman":8685,"otto":8686,"technicol":8687,"destiny":8688,"repeating":8689,"assured":8690,"silliness":8691,"75":8692,"chat":8693,"brush":8694,"unseen":8695,"consum":8696,"protest":8697,"interests":8698,"shod":8699,"ett":8700,"interestingly":8701,"walt":8702,"moronic":8703,"legends":8704,"teachers":8705,"metro":8706,"shooto":8707,"petty":8708,"package":8709,"minister":8710,"improvement":8711,"infin":8712,"reci":8713,"enig":8714,"encourage":8715,"oft":8716,"shared":8717,"shares":8718,"creen":8719,"gency":8720,"hello":8721,"region":8722,"dancers":8723,"custom":8724,"lively":8725,"waitress":8726,"lenny":8727,"primitive":8728,"complaints":8729,"wisdom":8730,"rendered":8731,"inexplicably":8732,"scooby":8733,"bars":8734,"loren":8735,"solo":8736,"poem":8737,"hers":8738,"drain":8739,"colm":8740,"elect":8741,"mothers":8742,"greedy":8743,"plicity":8744,"imaginable":8745,"darn":8746,"resident":8747,"advanced":8748,"patricia":8749,"incomprehensible":8750,".(":8751,"//":8752,"lunch":8753,"ume":8754,"uber":8755,"butcher":8756,"minus":8757,"misleading":8758,"underworld":8759,"constit":8760,"maxim":8761,"fascinated":8762,"pirates":8763,"debate":8764,"integrity":8765,"paradise":8766,"crocodile":8767,"bick":8768,"crown":8769,"tum":8770,"unle":8771,"filler":8772,"pron":8773,"merits":8774,"vince":8775,"posted":8776,"brooklyn":8777,"phantasm":8778,"destroying":8779,"gabriel":8780,"natalie":8781,"nonsensical":8782,"hans":8783,"laz":8784,"inability":8785,"tops":8786,"behold":8787,"dell":8788,"prose":8789,"mytho":8790,"stranded":8791,"parano":8792,"stern":8793,"definition":8794,"murdering":8795,"indiana":8796,"profanity":8797,"continually":8798,"refused":8799,"referred":8800,"testament":8801,"manipulative":8802,"baffl":8803,"macho":8804,"becca":8805,"landing":8806,"benjam":8807,"homes":8808,"1993":8809,"accurately":8810,"astronaut":8811,"macy":8812,"nom":8813,"osing":8814,"trend":8815,"playboy":8816,"insip":8817,"explores":8818,"industrial":8819,"voyage":8820,"precisely":8821,"prominent":8822,"40s":8823,"dates":8824,"sized":8825,"vital":8826,"leap":8827,"neath":8828,"shay":8829,"shoe":8830,"shoulder":8831,"trivial":8832,"dvds":8833,"earl":8834,"purple":8835,"literary":8836,"grief":8837,"sketch":8838,"atlant":8839,"quentin":8840,"insipid":8841,"22":8842,"mug":8843,"nbc":8844,"vain":8845,"edgy":8846,"ambi":8847,"craven":8848,"specially":8849,"walsh":8850,"supported":8851,"minority":8852,"companies":8853,"assassination":8854,"frost":8855,"apocalyptic":8856,"benjamin":8857,"ckey":8858,"vard":8859,"lix":8860,"liest":8861,"urs":8862,"descent":8863,"surfing":8864,"olds":8865,"compelled":8866,"brood":8867,"babies":8868,"randol":8869,"lengthy":8870,"hooker":8871,"pirate":8872,"jacket":8873,"coincidence":8874,"28":8875,"3000":8876,"daw":8877,"opt":8878,"revers":8879,"demented":8880,"davies":8881,"1978":8882,"masses":8883,"audition":8884,"significance":8885,"bunuel":8886,"snoop":8887,"analysis":8888,"cronenberg":8889,"cg":8890,"reeves":8891,"amused":8892,"poo":8893,"teams":8894,"woe":8895,"fathers":8896,"masterpieces":8897,"suffice":8898,"fuel":8899,"widely":8900,"mobile":8901,"muddled":8902,"oman":8903,"gems":8904,"perpet":8905,"underneath":8906,"positions":8907,"addiction":8908,"blacks":8909,"respective":8910,"hunters":8911,"objective":8912,"challenges":8913,"injured":8914,"saint":8915,"orson":8916,"wholly":8917,"undercover":8918,"warrant":8919,"nerve":8920,"additional":8921,"fairbanks":8922,"expressed":8923,"kapoor":8924,"stalker":8925,"1969":8926,"authorities":8927,"patients":8928,"oriented":8929,"soccer":8930,"bread":8931,"dame":8932,"dante":8933,"mber":8934,"sly":8935,"amir":8936,"carni":8937,"screens":8938,"located":8939,"chuckle":8940,"fifties":8941,"obligatory":8942,"widescreen":8943,"thieves":8944,"entitled":8945,"ghet":8946,"pc":8947,"rou":8948,"sig":8949,"aling":8950,"stap":8951,"rochester":8952,"pecu":8953,"nemes":8954,"mentions":8955,"internal":8956,"muslim":8957,"borg":8958,"wardrobe":8959,"aneous":8960,"medic":8961,"morals":8962,"crimin":8963,"undant":8964,"assumed":8965,"drinks":8966,"inevitably":8967,"paranoia":8968,"crip":8969,"option":8970,"arrow":8971,"accompany":8972,"unexplained":8973,"eline":8974,"females":8975,"tramp":8976,"awfully":8977,"firing":8978,"thrall":8979,"suspend":8980,"culmin":8981,"scottish":8982,"1939":8983,"axe":8984,"olivier":8985,"monkeys":8986,"preachy":8987,"amusement":8988,"aristocr":8989,"grip":8990,"gender":8991,"heston":8992,"kit":8993,"mans":8994,"dont":8995,"underwater":8996,"cinemas":8997,"shaking":8998,"gorilla":8999,"symbo":9000,"boxer":9001,"placing":9002,"1987":9003,"frozen":9004,"femme":9005,"randolph":9006,"ghetto":9007,"pimp":9008,"rehears":9009,"scul":9010,"uster":9011,"aches":9012,"passengers":9013,"deserving":9014,"dresses":9015,"sellers":9016,"informed":9017,"fiancee":9018,"hulk":9019,"fundamental":9020,"hindi":9021,"jed":9022,"naught":9023,"rear":9024,"edit":9025,"sugar":9026,"graf":9027,"blunt":9028,"marries":9029,"ilyn":9030,"stored":9031,"buzz":9032,".......":9033,"exceptions":9034,"victory":9035,"juan":9036,"refuse":9037,"gloom":9038,"conviction":9039,"technicolor":9040,"eats":9041,"lowe":9042,"delet":9043,"demise":9044,"ceme":9045,"comings":9046,"conscience":9047,"sharing":9048,"wesley":9049,"demonic":9050,"jumped":9051,"brutality":9052,"opportunities":9053,"juliet":9054,"fifth":9055,"knocked":9056,"shift":9057,"snipes":9058,"predecessor":9059,"empathy":9060,"grateful":9061,"oned":9062,"dope":9063,"shack":9064,"shouting":9065,"ounce":9066,"gum":9067,"ensen":9068,"biting":9069,"probable":9070,"clive":9071,"slack":9072,"passage":9073,"rises":9074,"1974":9075,"troubles":9076,"machines":9077,"losers":9078,"frightened":9079,"stallone":9080,"!'":9081,"og":9082,"tip":9083,"chal":9084,"entering":9085,"imper":9086,"gos":9087,"nephew":9088,"proving":9089,"tyler":9090,"crus":9091,"realm":9092,"iley":9093,"sublime":9094,"marty":9095,"doubts":9096,"races":9097,"1940s":9098,"lynn":9099,"resemble":9100,"convention":9101,"lionel":9102,"stretched":9103,"lackluster":9104,"unravel":9105,"dic":9106,"nand":9107,"remarks":9108,"rebecca":9109,"sein":9110,"deer":9111,"petr":9112,"horny":9113,"highway":9114,"barney":9115,"calcul":9116,"cultures":9117,"1989":9118,"sunny":9119,"threatens":9120,"apolo":9121,"discussing":9122,"insightful":9123,"lized":9124,"disguise":9125,"grainy":9126,"nemesis":9127,"cad":9128,"fart":9129,"mig":9130,"mck":9131,"tapes":9132,"stare":9133,"molly":9134,"icable":9135,"arest":9136,"genet":9137,"suburban":9138,"pax":9139,"counting":9140,"morse":9141,"ridge":9142,"1971":9143,"mixing":9144,"catchy":9145,"privile":9146,"motorcycle":9147,"sang":9148,"ensure":9149,"whale":9150,"coaster":9151,"astaire":9152,"grudge":9153,"clou":9154,"orton":9155,"mari":9156,"steady":9157,"simpsons":9158,"shaky":9159,"collector":9160,"christians":9161,"1973":9162,"1988":9163,"respectable":9164,"subjected":9165,"attract":9166,"jersey":9167,"kov":9168,"sara":9169,"cruelty":9170,"wagner":9171,"wrenching":9172,"coffin":9173,"shoddy":9174,"hend":9175,"lt":9176,"oning":9177,"orleans":9178,"adjust":9179,"backwards":9180,"surgery":9181,"taker":9182,"breast":9183,"earn":9184,"presenting":9185,"annon":9186,"sians":9187,"instinct":9188,"locals":9189,"positively":9190,"flower":9191,"symbolic":9192,"deceased":9193,"immortal":9194,"lifeless":9195,"aaron":9196,"cs":9197,"seam":9198,"/>***":9199,"heather":9200,"grams":9201,"stopping":9202,"generate":9203,"rukh":9204,"dump":9205,"thorn":9206,"fury":9207,"attacking":9208,"disgusted":9209,"ignorance":9210,"hopelessly":9211,"manuelle":9212,"21":9213,"eag":9214,"lily":9215,"ctic":9216,"gran":9217,"fog":9218,"bergh":9219,"strongest":9220,"identical":9221,"1994":9222,"containing":9223,"stunned":9224,"kissing":9225,"rejected":9226,"dwell":9227,"hats":9228,"pony":9229,"pisto":9230,"stages":9231,"noises":9232,"veron":9233,"hep":9234,"whore":9235,"disliked":9236,"oppress":9237,"completed":9238,"cube":9239,"legacy":9240,"sarandon":9241,"fascination":9242,"engrossing":9243,"hale":9244,"kaz":9245,"wakes":9246,"inhab":9247,"enthrall":9248,"pocket":9249,"felix":9250,"construct":9251,"agues":9252,"preposter":9253,"shin":9254,"fabr":9255,"cafe":9256,"anagh":9257,"records":9258,"tasteless":9259,"patriot":9260,"screwball":9261,"eternal":9262,"distribution":9263,"dysfunctional":9264,"23":9265,"ivan":9266,"wings":9267,"wid":9268,"meal":9269,"coln":9270,"lincoln":9271,"morbid":9272,"christine":9273,"pleasing":9274,"immediate":9275,"gloria":9276,"comparable":9277,"legitimate":9278,"jun":9279,"mers":9280,"remade":9281,"onent":9282,"loop":9283,"designer":9284,"owns":9285,"farmer":9286,"lette":9287,"motive":9288,"topics":9289,"burke":9290,"directions":9291,"richards":9292,"1996":9293,"hackney":9294,"firmly":9295,"bounty":9296,"infected":9297,"peculiar":9298,")!":9299,"patt":9300,"seth":9301,"beau":9302,"simplicity":9303,"subtly":9304,"invites":9305,"rupert":9306,"malcolm":9307,"bike":9308,"1981":9309,"biograph":9310,"loyalty":9311,"harmless":9312,"abrupt":9313,"resurre":9314,"provocative":9315,"cemetery":9316,"ibilities":9317,"remove":9318,"pepper":9319,"sheep":9320,"spawn":9321,"screenwriters":9322,"caster":9323,"retire":9324,"1976":9325,"sucker":9326,"bullock":9327,"beside":9328,"pedest":9329,"fellini":9330,"tourist":9331,"montgom":9332,"caliber":9333,"dictator":9334,"bess":9335,"skept":9336,"beard":9337,"immature":9338,"iran":9339,"doyle":9340,"indy":9341,"blink":9342,"lander":9343,"natives":9344,"hilarity":9345,"snap":9346,"computers":9347,"glover":9348,"ambition":9349,"reflects":9350,"exploring":9351,"reluctant":9352,"fantasies":9353,"montgomery":9354,"rack":9355,"wander":9356,"stack":9357,"uten":9358,"marsh":9359,"flam":9360,"rah":9361,"opard":9362,"voo":9363,"spock":9364,"morally":9365,"aircraft":9366,"venture":9367,"sticking":9368,"hannah":9369,"fluid":9370,"gulli":9371,"basketball":9372,",(":9373,"gere":9374,"ml":9375,"uma":9376,"whi":9377,"weed":9378,"congrat":9379,"ichi":9380,"fulfill":9381,"donna":9382,"interactions":9383,"chow":9384,"cuba":9385,"helpful":9386,"skir":9387,"thrilled":9388,"aboard":9389,"onymous":9390,"unlikeable":9391,"reliable":9392,"categor":9393,"admirable":9394,"fighters":9395,"stumbled":9396,"romeo":9397,"egyptian":9398,"judgment":9399,"deleted":9400,"hackneyed":9401,"ripping":9402,"sums":9403,"expose":9404,"prev":9405,"monty":9406,"bros":9407,"russians":9408,"costner":9409,"1985":9410,"bully":9411,"publicity":9412,"describing":9413,"ranch":9414,"emerges":9415,"supply":9416,"heights":9417,"elf":9418,"shoulders":9419,"phili":9420,"solved":9421,"miy":9422,"danish":9423,"deserted":9424,"henri":9425,"1983":9426,"difficulties":9427,"designs":9428,"authenticity":9429,"glamorous":9430,"claustrophobic":9431,"iant":9432,"kans":9433,"isand":9434,"lew":9435,"acclaimed":9436,"unlikable":9437,"grabs":9438,"disastr":9439,"afterward":9440,"rav":9441,"fier":9442,"suspension":9443,"detectives":9444,"warriors":9445,"htt":9446,"rhe":9447,"enni":9448,"dia":9449,"expects":9450,"rave":9451,"twent":9452,"slam":9453,"psychology":9454,"sixth":9455,"compete":9456,"unexpectedly":9457,"kathy":9458,"dentist":9459,"restrained":9460,"http":9461,"4th":9462,"://":9463,"piz":9464,"vary":9465,"edwards":9466,"brien":9467,"accounts":9468,"decap":9469,"abound":9470,"ulf":9471,"prequel":9472,"tyr":9473,"pryor":9474,"spee":9475,"parade":9476,"baron":9477,"northern":9478,"cushing":9479,"depending":9480,"cracks":9481,"lauren":9482,"preferred":9483,"landscapes":9484,"feminist":9485,"phenomenal":9486,"satirical":9487,"chev":9488,"seas":9489,"icking":9490,"overlook":9491,"paro":9492,"versity":9493,"syd":9494,"slaves":9495,"moron":9496,"wai":9497,"schools":9498,"stephan":9499,"hugely":9500,"1982":9501,"!\"<":9502,"palace":9503,"collins":9504,"fishing":9505,"shorter":9506,"lush":9507,"mish":9508,"raf":9509,"zie":9510,"andra":9511,"uncut":9512,"degrad":9513,"apid":9514,"shat":9515,"istent":9516,"realised":9517,"strate":9518,"stiller":9519,"monu":9520,"1000":9521,"humph":9522,"1992":9523,"panther":9524,"streisand":9525,"complexity":9526,"continuing":9527,"suspecting":9528,"falk":9529,"kidnapping":9530,"glowing":9531,"neurotic":9532,"\"<":9533,"lup":9534,"sigh":9535,"rider":9536,"items":9537,"addicted":9538,"dana":9539,"ballet":9540,"kyo":9541,"drove":9542,"hammy":9543,"refers":9544,"residents":9545,"destroys":9546,"golf":9547,"fade":9548,"gand":9549,"ige":9550,"stim":9551,"chess":9552,"lethal":9553,"vigil":9554,"undead":9555,"popping":9556,"partners":9557,"pointing":9558,"plod":9559,"coupled":9560,"volume":9561,"survives":9562,"flashes":9563,"julian":9564,"disguised":9565,"paranoid":9566,"preposterous":9567,"(!)":9568,"sg":9569,"inconsistent":9570,"deter":9571,"ria":9572,"justified":9573,"discer":9574,"opic":9575,"obst":9576,"goldie":9577,"kenneth":9578,"ronald":9579,"practical":9580,"groan":9581,"spectacle":9582,"windows":9583,"courtroom":9584,"wilderness":9585,"victorian":9586,"enhanced":9587,"aute":9588,"nig":9589,"remakes":9590,"ento":9591,"roo":9592,"allan":9593,"confir":9594,"uding":9595,"ensions":9596,"nero":9597,"earnest":9598,"portrayals":9599,"considerably":9600,"furious":9601,"mouthed":9602,"niece":9603,"lampo":9604,"dickens":9605,"hawk":9606,"lasts":9607,"wre":9608,"ille":9609,"advis":9610,"heap":9611,"soder":9612,"weigh":9613,"endor":9614,"gris":9615,"clone":9616,"duel":9617,"choppy":9618,"athlet":9619,"setup":9620,"linear":9621,"rowing":9622,"angelo":9623,"ploitation":9624,"difficulty":9625,"cules":9626,"convenient":9627,"ingenious":9628,"$$":9629,"(?)":9630,"een":9631,"thug":9632,"uns":9633,"cecil":9634,"estim":9635,"spill":9636,"cles":9637,"partially":9638,"stray":9639,"carmen":9640,"reader":9641,"nerves":9642,"deniro":9643,"amped":9644,"nihil":9645,"christina":9646,"posters":9647,"acceptance":9648,"communicate":9649,"affy":9650,"expense":9651,"surroundings":9652,"cigarette":9653,"caution":9654,"3d":9655,"gage":9656,"rh":9657,"voted":9658,"inu":9659,"whack":9660,"vera":9661,"abbott":9662,"gey":9663,"activity":9664,"interrog":9665,"dreck":9666,"godd":9667,"bbs":9668,"breakdown":9669,"lieuten":9670,"opers":9671,"referring":9672,"threatened":9673,"virtual":9674,"organized":9675,"bishop":9676,"aspiring":9677,"cattle":9678,"tub":9679,"restored":9680,"tos":9681,"argent":9682,"eday":9683,"gear":9684,"ules":9685,"pow":9686,"boards":9687,"umin":9688,"steer":9689,"handling":9690,"spoon":9691,"tempted":9692,"shortcomings":9693,"arrange":9694,"belt":9695,"1986":9696,"sarcast":9697,"pilots":9698,"punches":9699,"translated":9700,"abruptly":9701,"devastating":9702,"expedition":9703,"hepburn":9704,"voodoo":9705,"!,":9706,"branagh":9707,"deput":9708,"filmmaking":9709,"manif":9710,"athon":9711,"masks":9712,"skate":9713,"garian":9714,"bias":9715,"eship":9716,"pushes":9717,"domestic":9718,"someday":9719,"avid":9720,"sic":9721,"thon":9722,"bran":9723,"loa":9724,"elite":9725,"maj":9726,"mete":9727,"toole":9728,"marilyn":9729,"everett":9730,"standout":9731,"insists":9732,"handy":9733,"county":9734,"fuller":9735,"gods":9736,"patron":9737,"radical":9738,"salman":9739,"aussie":9740,"programme":9741,"transformed":9742,"separated":9743,"formative":9744,"stumble":9745,"stumbles":9746,"jarring":9747,"altered":9748,"conveniently":9749,"scotland":9750,"dilemma":9751,"stig":9752,"abled":9753,"scandal":9754,"preston":9755,"shred":9756,"slater":9757,"husbands":9758,"destined":9759,"lene":9760,"freddie":9761,"consciousness":9762,"jealousy":9763,"taped":9764,"jaded":9765,"sandy":9766,"yon":9767,"plants":9768,"previews":9769,"shout":9770,"myr":9771,"glued":9772,"odys":9773,"tember":9774,"understands":9775,"couch":9776,"fools":9777,"artsy":9778,"abortion":9779,"21st":9780,"lists":9781,"witted":9782,"thouse":9783,"leen":9784,"adle":9785,"fills":9786,"divid":9787,"dock":9788,"worship":9789,"overlong":9790,"seeming":9791,"misguided":9792,"heartfelt":9793,"pacific":9794,"medieval":9795,"adopt":9796,"gained":9797,"vehicles":9798,"blatantly":9799,"orchestr":9800,"september":9801,"sydney":9802,"btw":9803,"fuss":9804,"swords":9805,"enna":9806,"arn":9807,"leone":9808,"forgi":9809,"hawn":9810,"grin":9811,"spray":9812,"bett":9813,"drake":9814,"angus":9815,"paramount":9816,"believer":9817,"handles":9818,"counted":9819,"slut":9820,"heartwarming":9821,"copied":9822,"consideration":9823,"goldberg":9824,"palma":9825,"energetic":9826,"flip":9827,"absurdity":9828,"columbia":9829,"prostitution":9830,"pierce":9831,"laser":9832,"inhabitants":9833,"nag":9834,"pto":9835,"vak":9836,"vint":9837,"zer":9838,"inaccurate":9839,"encer":9840,"alon":9841,"immer":9842,"define":9843,"outfits":9844,"barker":9845,"slay":9846,"freder":9847,"bibl":9848,"bino":9849,"volcan":9850,"richardson":9851,"inspire":9852,"dragons":9853,"satisfaction":9854,"praised":9855,"sympathize":9856,"gambling":9857,"sketches":9858,"israel":9859,"tactics":9860,"lieutenant":9861,"wu":9862,"sting":9863,"neill":9864,"breakfast":9865,"crossed":9866,"flowers":9867,"contempt":9868,"lindsay":9869,"conventions":9870,"korea":9871,"pursued":9872,"rapidly":9873,"lass":9874,"wanders":9875,"befriends":9876,"entered":9877,"imprison":9878,"hercules":9879,"singers":9880,"extensive":9881,"register":9882,"2008":9883,"gangs":9884,"comparisons":9885,"scored":9886,"economic":9887,"vignet":9888,"recycled":9889,"rink":9890,"incorpor":9891,"elm":9892,"cepts":9893,"boston":9894,"indication":9895,"spit":9896,"heroin":9897,"messy":9898,"judi":9899,"published":9900,"combines":9901,"delightfully":9902,"vastly":9903,"elevator":9904,"absorbed":9905,"stardom":9906,"idol":9907,"mash":9908,"tabo":9909,"vaugh":9910,"hooper":9911,"outsid":9912,"thrust":9913,"curly":9914,"fortunate":9915,"roommate":9916,"judged":9917,"suggestion":9918,"sharon":9919,"busters":9920,"seymour":9921,"globe":9922,"connections":9923,"gates":9924,"nap":9925,"incorrect":9926,"sten":9927,"unding":9928,"users":9929,"percent":9930,"endlessly":9931,"spac":9932,"woven":9933,"longing":9934,"glen":9935,"miami":9936,"violin":9937,"depends":9938,"studying":9939,"samanth":9940,"1977":9941,"brainless":9942,"dimin":9943,"anthro":9944,"escaping":9945,"cookie":9946,"wounds":9947,"scenarios":9948,"monologue":9949,"phenomenon":9950,"astounding":9951,"disastrous":9952,"humphrey":9953,"cort":9954,"pm":9955,"sau":9956,"ua":9957,"wt":9958,"atics":9959,"veget":9960,"nolan":9961,"hapless":9962,"weep":9963,"blum":9964,"carlos":9965,"trigger":9966,"grounds":9967,"depths":9968,"sooner":9969,"kett":9970,"questioning":9971,"groo":9972,"quarters":9973,"guaranteed":9974,"thetically":9975,"samantha":9976,"til":9977,"token":9978,"odder":9979,"prow":9980,"chee":9981,"monroe":9982,"hyde":9983,"damaged":9984,"hangs":9985,"terrified":9986,"evidently":9987,"candyman":9988,"reports":9989,"contribute":9990,"isolation":9991,"stroke":9992,"defeated":9993,"repulsive":9994,"sergeant":9995,"rhythm":9996,"shearer":9997,"selection":9998,"85":9999,"lund":10000,"nations":10001,"unsatisfying":10002,"abh":10003,"netic":10004,"yep":10005,"lester":10006,"pretends":10007,"startling":10008,"eleven":10009,"garland":10010,"dumber":10011,"respectively":10012,"billing":10013,"communication":10014,"travell":10015,"1959":10016,"approaching":10017,"bonnie":10018,"bridget":10019,"veterans":10020,"emerge":10021,"flavor":10022,"bitten":10023,"ored":10024,"troy":10025,"retri":10026,"forrest":10027,"amit":10028,"prints":10029,"horiz":10030,"insom":10031,"attended":10032,"glance":10033,"lightning":10034,"masked":10035,"implied":10036,"simpson":10037,"wisely":10038,"willie":10039,"holm":10040,"approaches":10041,"obsessive":10042,"associate":10043,"prostitutes":10044,"bacon":10045,"sophie":10046,"wendy":10047,"infinite":10048,"sper":10049,"votes":10050,"angu":10051,"ariz":10052,"unimaginative":10053,"peters":10054,"dodge":10055,"toronto":10056,"claw":10057,"cram":10058,"assort":10059,"benny":10060,"snuff":10061,"hackman":10062,"divorced":10063,"occupied":10064,"wheelchair":10065,"substantial":10066,"vintage":10067,"('":10068,"ciful":10069,"kan":10070,"trow":10071,"uwe":10072,"britt":10073,"forsy":10074,"eland":10075,"goodbye":10076,"afghan":10077,"fund":10078,"plotting":10079,"smiles":10080,"alec":10081,"niel":10082,"sufficient":10083,"imaginary":10084,"sharks":10085,"mutil":10086,"flix":10087,"championship":10088,"tattoo":10089,"sarcastic":10090,"jury":10091,"rangers":10092,"xim":10093,"info":10094,"unner":10095,"diary":10096,"sopran":10097,"conrad":10098,"bos":10099,"mato":10100,"ringu":10101,"siblings":10102,"swamp":10103,"swearing":10104,"senator":10105,"spacey":10106,"flashy":10107,"statue":10108,"brady":10109,"replies":10110,"uniformly":10111,"accessible":10112,"conveys":10113,"sincerely":10114,"dubious":10115,"aggressive":10116,"masturb":10117,"sopranos":10118,"daf":10119,"fon":10120,"attribut":10121,"whiny":10122,"ghou":10123,"poi":10124,"dismiss":10125,"rath":10126,"trivia":10127,"paired":10128,"hyped":10129,"harbor":10130,"stylized":10131,"itches":10132,"despicable":10133,"swept":10134,"pathos":10135,"1991":10136,"melissa":10137,"noticeable":10138,"syndr":10139,"commitment":10140,"spree":10141,"convict":10142,"weaknesses":10143,"institution":10144,"refuge":10145,")?":10146,"inction":10147,"org":10148,"accepts":10149,"elding":10150,"diverse":10151,"scan":10152,"exterior":10153,"goods":10154,"characterizations":10155,"clin":10156,"chocol":10157,"ashley":10158,"colbert":10159,"handic":10160,"burgh":10161,"keys":10162,"promote":10163,"biker":10164,"lana":10165,"schizo":10166,"beatty":10167,"rescued":10168,"thirsty":10169,"sources":10170,"regularly":10171,"pomp":10172,"censor":10173,"canceled":10174,"dietrich":10175,"biblical":10176,"bava":10177,"zu":10178,"stones":10179,"adver":10180,"verb":10181,"rooting":10182,"neal":10183,"boil":10184,"flin":10185,"girlfriends":10186,"explosive":10187,"delicate":10188,"georgia":10189,"chills":10190,"subsequently":10191,"rewarding":10192,"confronted":10193,"carnival":10194,"jaf":10195,"lange":10196,"vile":10197,"yers":10198,"thesis":10199,"ghai":10200,"conqu":10201,"boasts":10202,"upside":10203,"sergio":10204,"raiser":10205,"owners":10206,"studies":10207,"rounded":10208,"studied":10209,"salt":10210,"ricky":10211,"layers":10212,"mechanical":10213,"valentine":10214,"dawson":10215,"300":10216,"bachel":10217,"daffy":10218,"iq":10219,"itated":10220,"noah":10221,"pec":10222,"ulated":10223,"mae":10224,"aky":10225,"aker":10226,"akshay":10227,"disci":10228,"atha":10229,"lastly":10230,"independence":10231,"galax":10232,"safely":10233,"nanny":10234,"politicians":10235,"kansas":10236,"meteor":10237,"hare":10238,"mcl":10239,"rour":10240,"recon":10241,"mold":10242,"debbie":10243,"wholes":10244,"proced":10245,"olin":10246,"grun":10247,"item":10248,"offend":10249,"carthy":10250,"harass":10251,"curtain":10252,"morons":10253,"queens":10254,"brosn":10255,"madman":10256,"madsen":10257,"adventur":10258,"rambo":10259,"millionaire":10260,"contempl":10261,"shifts":10262,"shrink":10263,"lavish":10264,"relentless":10265,"inexplicable":10266,"insurance":10267,"brooding":10268,"syndrome":10269,"500":10270,"gill":10271,"hk":10272,"lans":10273,"pel":10274,"pical":10275,"sf":10276,"nope":10277,"amour":10278,"unrelated":10279,"abre":10280,"pope":10281,"scum":10282,"quette":10283,"programs":10284,"sson":10285,"interrupted":10286,"downs":10287,"righte":10288,"garage":10289,"confeder":10290,"exploits":10291,"mcqueen":10292,"eventual":10293,"janet":10294,"elliott":10295,"enthusiastic":10296,"incidents":10297,"patriotic":10298,"aesthetic":10299,"brosnan":10300,"!\".":10301,"66":10302,"gau":10303,"lace":10304,"tab":10305,"anchor":10306,"resume":10307,"endo":10308,"adrian":10309,"abol":10310,"quant":10311,"fines":10312,"centre":10313,"phren":10314,"hybrid":10315,"impy":10316,"convinces":10317,"lancaster":10318,"campus":10319,"mannerisms":10320,"cells":10321,"distribu":10322,"selected":10323,"fierce":10324,"rourke":10325,"gav":10326,"liqu":10327,"utions":10328,"imi":10329,"unks":10330,"uncertain":10331,"unsuspecting":10332,"rook":10333,"rooney":10334,"kees":10335,"abstr":10336,"pod":10337,"commission":10338,"herbert":10339,"manga":10340,"mei":10341,"frames":10342,"iffer":10343,"corey":10344,"spencer":10345,"crud":10346,"pton":10347,"arson":10348,"realization":10349,"flame":10350,"chop":10351,"classy":10352,"mercy":10353,"examination":10354,"sorcer":10355,"vanessa":10356,"mccl":10357,"mille":10358,"ooo":10359,"senior":10360,"introducing":10361,"terrorism":10362,"cros":10363,"juliette":10364,"automatically":10365,"motivated":10366,"contribution":10367,"robbers":10368,"inherit":10369,"compliment":10370,"fodder":10371,"gli":10372,"hides":10373,"kink":10374,"kitty":10375,"inous":10376,"esque":10377,"alli":10378,"deck":10379,"boiled":10380,"spont":10381,"claudi":10382,"dismal":10383,"realistically":10384,"emmanuelle":10385,"produces":10386,"youngest":10387,"masoch":10388,"unker":10389,"limp":10390,"babes":10391,"goldblum":10392,"mirac":10393,"youthful":10394,"license":10395,"dalton":10396,"enhance":10397,"miyaz":10398,"custer":10399,"lend":10400,"nad":10401,"raging":10402,"aser":10403,"irs":10404,"tration":10405,"inee":10406,"jolie":10407,"wrought":10408,"venice":10409,"rightly":10410,"porky":10411,"kidman":10412,"budgets":10413,"definitive":10414,"numb":10415,"diner":10416,"mcdowell":10417,"snl":10418,"receiving":10419,"mutual":10420,"python":10421,"organization":10422,"determination":10423,"tolerable":10424,"amitabh":10425,"dafoe":10426,"!?":10427,"mn":10428,"uary":10429,"wang":10430,"iner":10431,"islam":10432,"moan":10433,"lois":10434,"demean":10435,"dial":10436,"boost":10437,"artis":10438,"miso":10439,"invention":10440,"warden":10441,"suspicion":10442,"mccarthy":10443,"ominous":10444,"accepting":10445,"stalking":10446,"routines":10447,"concentrate":10448,"paintings":10449,"dramatically":10450,"hippies":10451,"spaceship":10452,"schizophren":10453,"bim":10454,"phas":10455,"pause":10456,"agu":10457,"fathom":10458,"interact":10459,"straw":10460,"anski":10461,"readers":10462,"commits":10463,"origins":10464,"sterling":10465,"counsel":10466,"profit":10467,"witches":10468,"slide":10469,"possession":10470,"debt":10471,"advertise":10472,"billie":10473,"anticipation":10474,"limitations":10475,"sailor":10476,"vibrant":10477,"soderbergh":10478,"deputy":10479,"avi":10480,"uri":10481,"inity":10482,"infant":10483,"erie":10484,"restrict":10485,"whist":10486,"loon":10487,"mega":10488,"mored":10489,"choosing":10490,"ilda":10491,"bubble":10492,"titular":10493,"deny":10494,"denzel":10495,"relevance":10496,"labe":10497,"sorrow":10498,"psyched":10499,"rifle":10500,"swee":10501,"grandma":10502,"camps":10503,"freaky":10504,"settled":10505,"endeav":10506,"eternity":10507,"tossed":10508,"rusty":10509,"eagle":10510,"odyssey":10511,"ebert":10512,"fug":10513,"gence":10514,"lis":10515,"yup":10516,"inconsist":10517,"ati":10518,"tokyo":10519,"estr":10520,"liv":10521,"youtube":10522,"plex":10523,"colo":10524,"ours":10525,"clash":10526,"clooney":10527,"apply":10528,"lined":10529,"cuit":10530,"skits":10531,"daisy":10532,"remembering":10533,"profile":10534,"shocks":10535,"immers":10536,"suitably":10537,"stunningly":10538,"buffalo":10539,"stabbed":10540,"rampage":10541,"misogy":10542,"aqu":10543,"iors":10544,"sack":10545,"sane":10546,"informative":10547,"asi":10548,"beow":10549,"liam":10550,"libert":10551,"wich":10552,"hockey":10553,"realities":10554,"services":10555,"creek":10556,"oldest":10557,"expectation":10558,"slug":10559,"shaped":10560,"palm":10561,"ucky":10562,"shades":10563,"rainy":10564,"interviewed":10565,"corporation":10566,"robbins":10567,"gentlemen":10568,"chorus":10569,"akota":10570,"sensual":10571,"vomit":10572,"forgivable":10573,"!).<":10574,"slim":10575,"aro":10576,"chef":10577,"levy":10578,"wider":10579,"filth":10580,"ola":10581,"themed":10582,"trials":10583,"glaring":10584,"smash":10585,"courtes":10586,"sided":10587,"styl":10588,"malko":10589,"colleagues":10590,"bians":10591,"exploited":10592,"gypsy":10593,"destination":10594,"noteworthy":10595,"growth":10596,"crashing":10597,"flowing":10598,"linked":10599,"satanic":10600,"fixed":10601,"intricate":10602,"caricatures":10603,"tierney":10604,"guru":10605,"manufact":10606,"kumar":10607,"onents":10608,"/>--":10609,"rodri":10610,"outright":10611,"goss":10612,"poker":10613,"histori":10614,"proto":10615,"anyhow":10616,"spur":10617,"offbeat":10618,"izz":10619,"shotgun":10620,"logies":10621,"believability":10622,"battling":10623,"1975":10624,"statements":10625,"?!?!":10626,"celebration":10627,"colours":10628,"dustin":10629,"controversy":10630,"parallels":10631,"cbs":10632,"factors":10633,"mies":10634,"mama":10635,"itel":10636,"seedy":10637,"verbal":10638,"improbable":10639,"outlaw":10640,"charms":10641,"mentality":10642,"clan":10643,"cran":10644,"blaz":10645,"bernie":10646,"ighter":10647,"longest":10648,"buf":10649,"voye":10650,"mentor":10651,"experiencing":10652,"reminder":10653,"hijack":10654,"bulk":10655,"mysteriously":10656,"freaking":10657,"thurman":10658,"cleaning":10659,"advertised":10660,"crooked":10661,"graduate":10662,"clerk":10663,"breathing":10664,"protection":10665,"acknowled":10666,"pedestrian":10667,"inmates":10668,"tomato":10669,"arche":10670,"stag":10671,"oming":10672,"heels":10673,"unte":10674,"rig":10675,"weary":10676,"cohes":10677,"misfortune":10678,"chem":10679,"opho":10680,"versary":10681,"downfall":10682,"harrowing":10683,"cynic":10684,"casey":10685,"explode":10686,"hellraiser":10687,"array":10688,"commenting":10689,"sanity":10690,"criticize":10691,"affecting":10692,"decline":10693,"betrayed":10694,"deliberate":10695,"miyazaki":10696,"beowulf":10697,"amo":10698,"ido":10699,"pak":10700,"wwe":10701,"respects":10702,"stake":10703,"chu":10704,"verge":10705,"manic":10706,"perverse":10707,"sells":10708,"intoler":10709,"monica":10710,"bub":10711,"midst":10712,"paycheck":10713,"banter":10714,"schol":10715,"homo":10716,"zzie":10717,"locks":10718,"tucker":10719,"poirot":10720,"owes":10721,"yak":10722,"anxious":10723,"remembers":10724,"atile":10725,"versa":10726,"lola":10727,"havoc":10728,"sored":10729,"illumin":10730,"joining":10731,"monks":10732,"headache":10733,"vinnie":10734,"entirety":10735,"predictably":10736,"1933":10737,"session":10738,"suspected":10739,"tendency":10740,"distracted":10741,"skinny":10742,"peaceful":10743,"principle":10744,"bursts":10745,"assembled":10746,"lombard":10747,"divided":10748,"dakota":10749,"glee":10750,"hating":10751,"jug":10752,"lil":10753,"pare":10754,"anto":10755,"adminis":10756,"lope":10757,"elvi":10758,"ulously":10759,"neut":10760,"travis":10761,"interior":10762,"insights":10763,"motel":10764,"july":10765,"stuffed":10766,"dumped":10767,"avoiding":10768,"royd":10769,"trains":10770,"populated":10771,"gilbert":10772,"chewing":10773,"mesmerizing":10774,"candidate":10775,"bachelor":10776,"skilled":10777,"sundance":10778,"tren":10779,"troll":10780,"uate":10781,"sebast":10782,"cohen":10783,"goodman":10784,"joanna":10785,"cents":10786,"triple":10787,"caper":10788,"mercen":10789,"severed":10790,"colleague":10791,"laden":10792,"instances":10793,"sucking":10794,"decidedly":10795,"crosses":10796,"cartoonish":10797,"1934":10798,"approached":10799,"slimy":10800,"distraction":10801,"insert":10802,"medicine":10803,"vaughn":10804,"malkovich":10805,"bree":10806,"itivity":10807,"whites":10808,"lious":10809,"unfamiliar":10810,"irons":10811,"sorely":10812,"buys":10813,"subtext":10814,"velvet":10815,"motif":10816,"slavery":10817,"powered":10818,"volunte":10819,"homer":10820,"sensible":10821,"disturb":10822,"mouths":10823,"sharpe":10824,"discussed":10825,"christianity":10826,"flims":10827,"inspirational":10828,"extrav":10829,"strengths":10830,"gigantic":10831,"feeding":10832,"muppet":10833,"mythology":10834,"seinfeld":10835,"shatner":10836,"cries":10837,"dash":10838,"pfe":10839,"towers":10840,"toxic":10841,"/>****":10842,"ghast":10843,"hai":10844,"yours":10845,"iana":10846,"soror":10847,"exploding":10848,"expand":10849,"prophe":10850,"zog":10851,"district":10852,"shelter":10853,"duration":10854,"eggs":10855,"theories":10856,"speeches":10857,"wtf":10858,"righteous":10859,"cze":10860,"gwy":10861,"request":10862,"moto":10863,"fritz":10864,"peril":10865,"conco":10866,"enduring":10867,"misunderstood":10868,"boyle":10869,"compul":10870,"openly":10871,"identified":10872,"1932":10873,"additionally":10874,"resistance":10875,"rewarded":10876,"sparks":10877,"applaud":10878,"sylvia":10879,"smarter":10880,"neglected":10881,"dj":10882,"hires":10883,"jab":10884,"lli":10885,"lain":10886,"lends":10887,"mph":10888,"salo":10889,"nol":10890,"dot":10891,"notices":10892,"evans":10893,"wool":10894,"redneck":10895,"bloss":10896,"tickets":10897,"hopeful":10898,"puer":10899,"bikin":10900,"critique":10901,"cheaply":10902,"locate":10903,"meantime":10904,"insults":10905,"mediocr":10906,"arguments":10907,"bowl":10908,"departure":10909,"shelley":10910,"pianist":10911,"destructive":10912,"heimer":10913,"cism":10914,"sse":10915,"reun":10916,"roar":10917,"filthy":10918,"goals":10919,"tram":10920,"upcoming":10921,"baddies":10922,"ppi":10923,"funding":10924,"busey":10925,"comeback":10926,"begging":10927,"basil":10928,"gerard":10929,"sites":10930,"existing":10931,"ritter":10932,"sickening":10933,"1945":10934,"sanders":10935,"knox":10936,"robbed":10937,"neatly":10938,"injury":10939,"elope":10940,"dallas":10941,"naughty":10942,"fus":10943,"knot":10944,"sap":10945,"bewilder":10946,"impec":10947,"unsympathetic":10948,"keitel":10949,"riff":10950,"peas":10951,"herzog":10952,"conquer":10953,"quire":10954,"shopping":10955,"carnation":10956,"bennett":10957,"descend":10958,"conclude":10959,"camcor":10960,"resembling":10961,"mobster":10962,"mildred":10963,"climbing":10964,"swinging":10965,"gloomy":10966,"widmark":10967,"48":10968,"cough":10969,"pent":10970,"looney":10971,"likeable":10972,"anytime":10973,"dern":10974,"inef":10975,"disabled":10976,"assy":10977,"redundant":10978,"closure":10979,"landed":10980,"brett":10981,"missions":10982,"painter":10983,"shawn":10984,"existential":10985,"nominations":10986,"ninjas":10987,"demonstrate":10988,"lighter":10989,"bind":10990,"bals":10991,"pbs":10992,"sain":10993,"anarch":10994,"recur":10995,"resent":10996,"alpha":10997,"stad":10998,"seats":10999,"beef":11000,"outdated":11001,"quint":11002,"graves":11003,"simmons":11004,"wartime":11005,"areness":11006,"confuse":11007,"spiral":11008,"vari":11009,"ripoff":11010,"literal":11011,"piper":11012,"jacques":11013,"planted":11014,"mortal":11015,"pursue":11016,"conduct":11017,"chronicles":11018,"employee":11019,"therapy":11020,"ineffect":11021,"gir":11022,"lag":11023,"pans":11024,"theo":11025,"repressed":11026,"iconic":11027,"admission":11028,"vern":11029,"verdict":11030,"uncan":11031,"deft":11032,"kean":11033,"coma":11034,"shepher":11035,"intend":11036,"aftermath":11037,"intertw":11038,"sincer":11039,"blooded":11040,"admits":11041,"paltrow":11042,"roads":11043,"tightly":11044,"rivals":11045,"switched":11046,"rebellious":11047,"sinking":11048,"convicted":11049,"abomination":11050,"atlantis":11051,"lom":11052,"recover":11053,"sta":11054,"icia":11055,"entries":11056,"goon":11057,"aug":11058,"howling":11059,"claus":11060,"showtime":11061,"wherever":11062,"emil":11063,"submarine":11064,"foundation":11065,"niven":11066,"cameraman":11067,"reviewed":11068,"excellently":11069,"garde":11070,"malone":11071,"frontal":11072,"aided":11073,"hungarian":11074,"packs":11075,"dominated":11076,"cooking":11077,"gallery":11078,"salvation":11079,"apologi":11080,"stephanie":11081,"plodding":11082,"bure":11083,"lac":11084,"uation":11085,"chad":11086,"hea":11087,"unwilling":11088,"sober":11089,"scal":11090,"qui":11091,"artwork":11092,"cloud":11093,"parag":11094,"barn":11095,"norwe":11096,"paints":11097,"physics":11098,"punct":11099,"influential":11100,"hostile":11101,"encountered":11102,"cassidy":11103,"hysterically":11104,"ignoring":11105,"dynamite":11106,"benefits":11107,"pornography":11108,"assignment":11109,"immigrant":11110,"antagonist":11111,"customers":11112,"parodies":11113,"mediocrity":11114,"bashing":11115,"gish":11116,"kle":11117,"enix":11118,"unconscious":11119,"scant":11120,"exit":11121,"perception":11122,"perpetr":11123,"weet":11124,"oka":11125,"indicate":11126,"affects":11127,"clut":11128,"helm":11129,"cursed":11130,"fanatic":11131,"soup":11132,"biopic":11133,"umpy":11134,"deeds":11135,"katherine":11136,"rambling":11137,"thirties":11138,"celebrities":11139,"kramer":11140,"elliot":11141,"inherent":11142,"sitcoms":11143,"uniforms":11144,"embrace":11145,"carnage":11146,"keller":11147,"characteristics":11148,"arizona":11149,"\"--":11150,".).":11151,"rar":11152,"ingrid":11153,"ima":11154,"haunt":11155,"dove":11156,"boots":11157,"igan":11158,"spine":11159,"aks":11160,"awareness":11161,"specul":11162,"cheers":11163,"lesbians":11164,"mercil":11165,"translate":11166,"netflix":11167,"fitz":11168,"communic":11169,"macabre":11170,"embarrassingly":11171,"crawl":11172,"stripper":11173,"glimpses":11174,"conveyed":11175,"absorbing":11176,"pizza":11177,"pompous":11178,"galaxy":11179,"merciless":11180,"duch":11181,"ethan":11182,"iate":11183,"uries":11184,"wary":11185,"adel":11186,"hog":11187,"goer":11188,"tormented":11189,"composition":11190,"manners":11191,"cosmo":11192,"overs":11193,"surgeon":11194,"porter":11195,"applied":11196,"luis":11197,"deciding":11198,"admired":11199,"thora":11200,"palance":11201,"gestures":11202,"tests":11203,"armstrong":11204,"liberty":11205,"robbing":11206,"environmental":11207,"collective":11208,"replacement":11209,"whisper":11210,"muscle":11211,"volcano":11212,"fang":11213,"sas":11214,"sical":11215,"uth":11216,"vcr":11217,"erup":11218,"reagan":11219,"isle":11220,"issi":11221,"ormal":11222,"wielding":11223,"geoff":11224,"update":11225,"spies":11226,"spelling":11227,"strung":11228,"razor":11229,"highlander":11230,"inclusion":11231,"psyche":11232,"sleeper":11233,"franklin":11234,"catastro":11235,"1941":11236,"delighted":11237,"bella":11238,"bags":11239,"kinski":11240,"achieves":11241,"crooks":11242,"acknowledge":11243,"boobs":11244,"promptly":11245,"maximum":11246,"colored":11247,"fers":11248,"gilli":11249,"gina":11250,"gaps":11251,"sni":11252,"filmo":11253,"torment":11254,"agatha":11255,"berto":11256,"drab":11257,"ensibly":11258,"bites":11259,"farley":11260,"visitor":11261,"denou":11262,"cutter":11263,"penal":11264,"pedo":11265,"andrea":11266,"chaotic":11267,"horrified":11268,"narc":11269,"guardian":11270,"tolerance":11271,"pamela":11272,"paranormal":11273,"preparing":11274,"dazzling":11275,"estranged":11276,"pfeiffer":11277,"\":":11278,"?\".":11279,"kine":11280,"reserved":11281,"ordeal":11282,"rips":11283,"goat":11284,"fraud":11285,"worm":11286,"audrey":11287,"eved":11288,"duff":11289,"marines":11290,"gible":11291,"turd":11292,"posal":11293,"harri":11294,"toni":11295,"regain":11296,"reviewing":11297,"facility":11298,"jux":11299,"scariest":11300,"telephone":11301,"descending":11302,"freeze":11303,"treas":11304,"affleck":11305,"flows":11306,"knocking":11307,"contributed":11308,"binoche":11309,"voyeur":11310,"shepherd":11311,"\"(":11312,"faw":11313,"fren":11314,"jig":11315,"jagger":11316,"jules":11317,"mandy":11318,"inadver":11319,"neider":11320,"intact":11321,"attach":11322,"farrell":11323,"voight":11324,"promoted":11325,"slept":11326,"approxim":11327,"reminding":11328,"hunted":11329,"sleeps":11330,"experts":11331,"finishing":11332,"intensely":11333,"laurence":11334,"celebrated":11335,"buffy":11336,"marrying":11337,"climb":11338,"acquired":11339,"mystical":11340,"shields":11341,"oblivious":11342,"amidst":11343,"26":11344,"vick":11345,"brun":11346,"lod":11347,"unnatural":11348,"rogue":11349,"cannes":11350,"distor":11351,"101":11352,"bitters":11353,"subdu":11354,"factual":11355,"slapped":11356,"mormon":11357,"burger":11358,"numbing":11359,"midler":11360,"casino":11361,"bbing":11362,"octo":11363,"groundbreaking":11364,"novelty":11365,"uttering":11366,"theatres":11367,"hurry":11368,"ucci":11369,"hallmark":11370,"rosemary":11371,"incidental":11372,"feeble":11373,"immigrants":11374,"swift":11375,"idelity":11376,"shootout":11377,"chemical":11378,"inadvertent":11379,"bittersweet":11380,"27":11381,"nash":11382,"sought":11383,"sunk":11384,"stating":11385,"artif":11386,"foremost":11387,"understatement":11388,"starters":11389,"begs":11390,"fiend":11391,"housewife":11392,"cyborg":11393,"sentences":11394,"decad":11395,"ushi":11396,"rounds":11397,"lambert":11398,"professionals":11399,"qualify":11400,"spinning":11401,"reflected":11402,"intimid":11403,"contestants":11404,"atomic":11405,"newcomer":11406,"veronica":11407,"sorority":11408,"nolte":11409,"denouement":11410,"juxta":11411,"kline":11412,"toro":11413,"/>**":11414,"heter":11415,"demille":11416,"outline":11417,"usively":11418,"boor":11419,"quasi":11420,"ollie":11421,"jock":11422,"overbearing":11423,"vester":11424,"viewpoint":11425,"cheat":11426,"chopped":11427,"insign":11428,"subur":11429,"teller":11430,"mermaid":11431,"satell":11432,"furnit":11433,"agony":11434,"1990s":11435,"sensation":11436,"cabaret":11437,"puppy":11438,"carson":11439,"clubs":11440,"sabot":11441,"orchestra":11442,"vignettes":11443,"brent":11444,"roughly":11445,"tsu":11446,"innu":11447,"esquire":11448,"arquette":11449,"lex":11450,"whip":11451,"loret":11452,"amity":11453,"evoc":11454,"updated":11455,"spice":11456,"playful":11457,"blamed":11458,"appeals":11459,"borders":11460,"ruby":11461,"ferr":11462,"garcia":11463,"momentum":11464,"?\"<":11465,"governor":11466,"duncan":11467,"possesses":11468,"sentimentality":11469,"rhys":11470,"stabbing":11471,"trauma":11472,"swanson":11473,"flimsy":11474,".),":11475,"eze":11476,"mitted":11477,"tow":11478,"wastes":11479,"overweight":11480,"overblown":11481,"dispatch":11482,"chet":11483,"carroll":11484,"begun":11485,"nora":11486,"miche":11487,"payoff":11488,"weaker":11489,"schwar":11490,"melting":11491,"fuzzy":11492,"pivo":11493,"hayden":11494,"burnt":11495,"complications":11496,"comprehend":11497,"gravity":11498,"melancho":11499,"shanghai":11500,"sweeping":11501,"homicide":11502,"substitute":11503,"biographical":11504,"furniture":11505,"!\",":11506,"hunk":11507,"jou":11508,"una":11509,"unanswered":11510,"maur":11511,"scroo":11512,"consul":11513,"coke":11514,"cott":11515,"shannon":11516,"sonny":11517,"newer":11518,"posit":11519,"anky":11520,"sadako":11521,"jackass":11522,"dumbest":11523,"stalin":11524,"1936":11525,"witnessing":11526,"winters":11527,"sacrifices":11528,"salesman":11529,"photographs":11530,"rathbone":11531,"(*":11532,"dain":11533,"threads":11534,"reverse":11535,"stef":11536,"segal":11537,"whining":11538,"dix":11539,"dox":11540,"articul":11541,"sprink":11542,"timely":11543,"disput":11544,"disorder":11545,"assic":11546,"policy":11547,"merry":11548,"masterfully":11549,"uttered":11550,"penelope":11551,"narrated":11552,"mixes":11553,"furi":11554,"1955":11555,"pairing":11556,"booth":11557,"muld":11558,"seduce":11559,"establishing":11560,"clockwork":11561,"undeniably":11562,"grisly":11563,"courtesy":11564,"camcorder":11565,"eg":11566,"faded":11567,"hast":11568,"ience":11569,"nay":11570,"vapid":11571,"rejects":11572,"attain":11573,"orn":11574,"verho":11575,"unsure":11576,"fry":11577,"boast":11578,"quot":11579,"carly":11580,"parking":11581,"arent":11582,"barber":11583,"capacity":11584,"budd":11585,"client":11586,"merchant":11587,"blackmail":11588,"skit":11589,"danes":11590,"predic":11591,"patty":11592,"rett":11593,"damon":11594,"villainous":11595,"grandson":11596,"penis":11597,"expertly":11598,"suggesting":11599,"1947":11600,"crafts":11601,"anthology":11602,"fleet":11603,"candle":11604,"hilton":11605,"scratching":11606,"pione":11607,"pounds":11608,"politician":11609,"orphanage":11610,"observation":11611,"pokemon":11612,"paragrap":11613,"cater":11614,"eur":11615,"zene":11616,"arous":11617,"accid":11618,"diaz":11619,"digging":11620,"socially":11621,"ulating":11622,"scow":11623,"odle":11624,"aph":11625,"frantic":11626,"whoop":11627,"confined":11628,"underwear":11629,"youngsters":11630,"polanski":11631,"founded":11632,"arkin":11633,"phoenix":11634,"variation":11635,"shockingly":11636,"decay":11637,"machin":11638,"circles":11639,"conclusions":11640,"shadowed":11641,"lays":11642,"cracker":11643,"sporting":11644,"thumb":11645,"establishment":11646,"occupation":11647,"tremendously":11648,"israeli":11649,"swayze":11650,"pistol":11651,"discern":11652,"pivotal":11653,"bash":11654,"iated":11655,"nant":11656,"pip":11657,"asco":11658,"entrance":11659,"forgetting":11660,"meek":11661,"evan":11662,"duplic":11663,"joyce":11664,"complet":11665,"tempor":11666,"morph":11667,"releasing":11668,"election":11669,"novelist":11670,"restor":11671,"schneider":11672,"arriving":11673,"rainbow":11674,"insulted":11675,"switches":11676,"confession":11677,"participate":11678,"officials":11679,"itarian":11680,"warehouse":11681,"distinguished":11682,"consequently":11683,"enigmatic":11684,"crippled":11685,"vigilante":11686,"manifest":11687,"psychedelic":11688,"sr":11689,"stations":11690,"stagger":11691,"sec":11692,"maine":11693,"plug":11694,"redford":11695,"buc":11696,"attending":11697,"liner":11698,"climatic":11699,"impul":11700,"nonex":11701,"penguin":11702,"rani":11703,"sensitivity":11704,"investigator":11705,"distract":11706,"demonstrated":11707,"maintains":11708,"vividly":11709,"blessed":11710,"hmmm":11711,"dillon":11712,"myrna":11713,"horizon":11714,"reconc":11715,"sincerity":11716,"subdued":11717,"das":11718,"rut":11719,"repress":11720,"enne":11721,"toff":11722,"bryan":11723,"bea":11724,"unclear":11725,"plato":11726,"shee":11727,"clair":11728,"disappearance":11729,"mines":11730,"underdeveloped":11731,"readily":11732,"products":11733,"brew":11734,"succum":11735,"casab":11736,"payne":11737,"judges":11738,"respectful":11739,"angelina":11740,"darren":11741,"bombing":11742,"resolve":11743,"captivated":11744,"confronts":11745,"employees":11746,"dodgy":11747,"competence":11748,"rehash":11749,"nigel":11750,"taboo":11751,"bureau":11752,"bend":11753,"cain":11754,"kon":11755,"laught":11756,"laced":11757,"vau":11758,"eda":11759,"bral":11760,"suave":11761,"poly":11762,"meandering":11763,"cocaine":11764,"foil":11765,"crete":11766,"desol":11767,"daylight":11768,"matte":11769,"goings":11770,"letdown":11771,"regime":11772,"seriousness":11773,"brooke":11774,"greml":11775,"shakes":11776,"explodes":11777,"critters":11778,"effortlessly":11779,"palest":11780,"satisfactory":11781,"combining":11782,"tuned":11783,"hooks":11784,"foxx":11785,"................":11786,"admiration":11787,"federal":11788,"profoundly":11789,"kathleen":11790,"bastard":11791,"gathering":11792,"honeymoon":11793,"optimistic":11794,"stereotyped":11795,"afghanistan":11796,"gremlins":11797,"baked":11798,"gamer":11799,"ufo":11800,"yy":11801,"thors":11802,"indifferent":11803,"esp":11804,"andered":11805,"dive":11806,"digest":11807,"conno":11808,"achron":11809,"backed":11810,"centuries":11811,"raven":11812,"smir":11813,"controlling":11814,"igned":11815,"burden":11816,"considers":11817,"predictability":11818,"lanca":11819,"expressive":11820,"battlefield":11821,"1942":11822,"slashers":11823,"layered":11824,"programming":11825,"boogie":11826,"shirts":11827,"manipulation":11828,"robertson":11829,"skeleton":11830,"detract":11831,"transported":11832,"henchmen":11833,"chevy":11834,"250":11835,"dling":11836,"kal":11837,"zany":11838,"enforce":11839,"icism":11840,"deterior":11841,"gobl":11842,"conform":11843,"shane":11844,"bliss":11845,"offense":11846,"marvell":11847,"carole":11848,"excuses":11849,"cord":11850,"polite":11851,"deadpan":11852,"dah":11853,"logan":11854,"aiming":11855,"snappy":11856,"paula":11857,"invested":11858,"defies":11859,"miranda":11860,"festivals":11861,"troopers":11862,"stoned":11863,"montana":11864,"progressed":11865,"strained":11866,"ninety":11867,"concentration":11868,"advances":11869,"lampoon":11870,"casablanca":11871,"aura":11872,"pies":11873,"inian":11874,"envelo":11875,"itte":11876,"stella":11877,"omar":11878,"nosed":11879,"havill":11880,"mead":11881,"estone":11882,"congr":11883,"upbeat":11884,"greats":11885,"ference":11886,"sleeve":11887,"melt":11888,"fatale":11889,"crowe":11890,"ordinarily":11891,"isabelle":11892,"mocking":11893,"eyre":11894,"assumes":11895,"jurassic":11896,"discipl":11897,"harriet":11898,"melancholy":11899,"havilland":11900,"47":11901,"bout":11902,"cri":11903,"nif":11904,"injustice":11905,"anachron":11906,"edmund":11907,"staging":11908,"chok":11909,"aco":11910,"iciently":11911,"novak":11912,"vibe":11913,"loan":11914,"lore":11915,"amato":11916,"consp":11917,"fla":11918,"takashi":11919,"emmy":11920,"worldly":11921,"murky":11922,"caes":11923,"passenger":11924,"legion":11925,"grees":11926,"promis":11927,"varied":11928,"belushi":11929,"similarity":11930,"sleepy":11931,"dragging":11932,"macbeth":11933,"moust":11934,"complained":11935,"influences":11936,"ww2":11937,"mirrors":11938,"anticipated":11939,"brenda":11940,"clerks":11941,"fragile":11942,"thearted":11943,"recipe":11944,"judith":11945,"abstract":11946,"artistry":11947,"sebastian":11948,"insignific":11949,"nonexistent":11950,"*<":11951,"dit":11952,"emo":11953,"kauf":11954,"nina":11955,"pum":11956,"uu":11957,"yok":11958,"infil":11959,"anx":11960,"erika":11961,"chup":11962,"degrees":11963,"peers":11964,"perverted":11965,"johan":11966,"faul":11967,"marish":11968,"empt":11969,"masquer":11970,"paths":11971,"targets":11972,"stripped":11973,"1957":11974,"nuanced":11975,"curiously":11976,"chuckles":11977,"seductive":11978,"distinctive":11979,"sylvester":11980,"retrospect":11981,"deliciously":11982,"lorenzo":11983,"lundgren":11984,"pakistan":11985,"october":11986,"faux":11987,"jing":11988,"tles":11989,"tables":11990,"oni":11991,"tol":11992,"modo":11993,"ample":11994,"uneasy":11995,"framing":11996,"congress":11997,"thereby":11998,"shen":11999,"characterisation":12000,"guine":12001,"guff":12002,"bler":12003,"nerdy":12004,"meredith":12005,"waits":12006,"generates":12007,"ruining":12008,"traitor":12009,"occult":12010,"puff":12011,"seasoned":12012,"1967":12013,"structured":12014,"arguing":12015,"increasing":12016,"sweden":12017,"smoothly":12018,"monoton":12019,"fugitive":12020,"zenegger":12021,"dang":12022,"dashing":12023,"ladd":12024,"stur":12025,"chim":12026,"unconventional":12027,"gown":12028,"traps":12029,"meyer":12030,"proportions":12031,"spon":12032,"chops":12033,"attic":12034,"iago":12035,"superstar":12036,"impending":12037,"villagers":12038,"summed":12039,"mcdonald":12040,"ailing":12041,"avoids":12042,"homopho":12043,"shady":12044,"darling":12045,"melody":12046,"boundaries":12047,"increase":12048,"rebels":12049,"romanian":12050,"phrases":12051,"economy":12052,"ambiguity":12053,"houston":12054,"railroad":12055,"micheal":12056,"fence":12057,"faint":12058,"sins":12059,"ori":12060,"ortho":12061,"accus":12062,"forgiving":12063,"unattractive":12064,"hau":12065,"diabol":12066,"torch":12067,"charges":12068,"disillusion":12069,"creations":12070,"sexist":12071,"conti":12072,"excellence":12073,"honour":12074,"magically":12075,"shaft":12076,"malt":12077,"dealers":12078,"madison":12079,"ails":12080,"counterparts":12081,"spotting":12082,"milland":12083,"issance":12084,"laying":12085,"nelly":12086,"rousing":12087,"feminine":12088,"griffin":12089,"announce":12090,"lurking":12091,"enchanting":12092,"gadget":12093,"compensate":12094,"paxton":12095,"wholesome":12096,"elvira":12097,"czech":12098,"narciss":12099,"scrooge":12100,"fid":12101,"thai":12102,"todays":12103,"alot":12104,"lims":12105,"wither":12106,"hagg":12107,"gov":12108,"compromising":12109,"cancell":12110,"yea":12111,"prank":12112,"willard":12113,"llen":12114,"strick":12115,"talky":12116,"maturity":12117,"raimi":12118,"subway":12119,"hardest":12120,"screened":12121,"nightmarish":12122,"motions":12123,"midget":12124,"despise":12125,"resulted":12126,"pleasures":12127,"truths":12128,"!)<":12129,"accuracies":12130,"apore":12131,"ignores":12132,"servants":12133,"emergency":12134,"principals":12135,"hartley":12136,"itzer":12137,"acquaint":12138,"lunatic":12139,"schedule":12140,"perceived":12141,"patton":12142,"philipp":12143,"lansbury":12144,"liberties":12145,"lopez":12146,"saloon":12147,"verhoeven":12148,"nifty":12149,"ota":12150,"pant":12151,"swash":12152,"incapable":12153,"rene":12154,"ician":12155,"advised":12156,"irving":12157,"scri":12158,"mania":12159,"percept":12160,"authors":12161,"evoke":12162,"coo":12163,"fulfilled":12164,"epics":12165,"ileen":12166,"marlon":12167,"flames":12168,"viscer":12169,"corrid":12170,"singapore":12171,"vory":12172,"guez":12173,"spoiling":12174,"ladder":12175,"tails":12176,"languages":12177,"dario":12178,"mannered":12179,"fleshed":12180,"hhhh":12181,"dynamics":12182,"preacher":12183,"rendering":12184,"kisses":12185,"geeks":12186,"inserted":12187,"lighthearted":12188,"reruns":12189,"nauseating":12190,"article":12191,"granny":12192,"nielsen":12193,"hanger":12194,"rko":12195,"tant":12196,"theft":12197,"leopard":12198,"sect":12199,"amen":12200,"unusually":12201,"iders":12202,"disregard":12203,"ideals":12204,"marcus":12205,"carib":12206,"observe":12207,"massey":12208,"mississi":12209,"reggie":12210,"grease":12211,"vanity":12212,"scarier":12213,"radiation":12214,"downey":12215,"greene":12216,"macdonald":12217,"1954":12218,"progression":12219,"scheming":12220,"joshua":12221,"relentlessly":12222,"engagement":12223,"astronauts":12224,"antoine":12225,")'":12226,">>":12227,"wits":12228,"anonymous":12229,"seal":12230,"mol":12231,"depar":12232,"outdoor":12233,"sca":12234,"perkins":12235,"tease":12236,"clara":12237,"fled":12238,"cheadle":12239,"parap":12240,"phia":12241,"bucket":12242,"polis":12243,"voting":12244,"fernand":12245,"listened":12246,"operating":12247,"arranged":12248,"treach":12249,"pene":12250,"rapist":12251,"crypt":12252,"1944":12253,"sarcas":12254,"1931":12255,"mills":12256,"cerebral":12257,"atrocity":12258,"reported":12259,"grabbed":12260,"sophom":12261,"atlantic":12262,"excruciatingly":12263,"rodriguez":12264,"satellite":12265,"loretta":12266,"orthodox":12267,"?,":12268,"pud":12269,"reper":12270,"brass":12271,"elly":12272,"cemi":12273,"olsen":12274,"turmo":12275,"committing":12276,"solar":12277,"minger":12278,"distinction":12279,"buscemi":12280,"criter":12281,"equi":12282,"weekly":12283,"gains":12284,"nelli":12285,"tacked":12286,"sections":12287,"permanent":12288,"gandhi":12289,"chocolate":12290,"inconsistencies":12291,"norwegian":12292,"inadvertently":12293,"mississippi":12294,"cindy":12295,"ebay":12296,"oven":12297,"yas":12298,"allies":12299,"edie":12300,"stamp":12301,"sule":12302,"conj":12303,"idan":12304,"cob":12305,"watcher":12306,"spaces":12307,"showcas":12308,"overt":12309,"newton":12310,"cheering":12311,"muslims":12312,"stub":12313,"fanny":12314,"dieu":12315,"jude":12316,"swiss":12317,"1956":12318,"devotion":12319,"civilians":12320,"contributes":12321,"brazilian":12322,"katie":12323,"awaiting":12324,"alleged":12325,"distributed":12326,"glossy":12327,"staple":12328,"anguish":12329,"gossip":12330,"kaufman":12331,"sarcasm":12332,"cau":12333,"gart":12334,"nity":12335,"rish":12336,"replic":12337,"alarm":12338,"secut":12339,"bets":12340,"liu":12341,"irresist":12342,"gosh":12343,"scam":12344,"wea":12345,"projection":12346,"marcel":12347,"harmon":12348,"murderers":12349,"extremes":12350,"2009":12351,"scarface":12352,"drugged":12353,"inov":12354,"circuit":12355,"natured":12356,"officially":12357,"informs":12358,"spotlight":12359,"fellas":12360,"blockbusters":12361,"commanding":12362,"irritated":12363,"ceremony":12364,"gregor":12365,"rodney":12366,"hawke":12367,"obscurity":12368,"addressed":12369,"announced":12370,"melanie":12371,"esteem":12372,"recurring":12373,"jah":12374,"thail":12375,"asters":12376,"pean":12377,"actica":12378,"pered":12379,"cipher":12380,"flaming":12381,"minnelli":12382,"chock":12383,"mascul":12384,"silk":12385,"examine":12386,"coolest":12387,"frontier":12388,"lennon":12389,"sixteen":12390,"slips":12391,"interpretations":12392,"instructor":12393,"traumatic":12394,"bachchan":12395,"improvised":12396,"bleeding":12397,"caval":12398,"rudy":12399,"filmography":12400,"maurice":12401,"thailand":12402,"mice":12403,"munch":12404,"ritch":12405,"saf":12406,"thia":12407,"remorse":12408,"bees":12409,"whirl":12410,"hail":12411,"boone":12412,"eving":12413,"coon":12414,"charley":12415,"grating":12416,"overboard":12417,"blax":12418,"throne":12419,"warns":12420,"wonderland":12421,"titill":12422,"toned":12423,"skins":12424,"failures":12425,"patter":12426,"englund":12427,"mccoy":12428,"trevor":12429,"bills":12430,"ennes":12431,"chapters":12432,"knocks":12433,"virtue":12434,"tragically":12435,"suicidal":12436,"representative":12437,"courageous":12438,"interpreted":12439,"cannibals":12440,"revelations":12441,"geraldine":12442,"transcend":12443,"hesitate":12444,"handicapped":12445,"swashbuck":12446,"88":12447,"buch":12448,"binder":12449,"eco":12450,"groom":12451,"jin":12452,"lung":12453,"raged":12454,"uto":12455,"inaccuracies":12456,"repris":12457,"secure":12458,"logues":12459,"unstable":12460,"demi":12461,"hob":12462,"dipl":12463,"ularly":12464,"antically":12465,"amelie":12466,"crass":12467,"displaying":12468,"paras":12469,"opath":12470,"runaway":12471,"merciful":12472,"cuban":12473,"romances":12474,"ruff":12475,"madame":12476,"shocker":12477,"hateful":12478,"dreaming":12479,"gathered":12480,"circa":12481,"1938":12482,"ramon":12483,"sheridan":12484,"grocer":12485,"stretches":12486,"junkie":12487,"thood":12488,"clarke":12489,"devito":12490,"muppets":12491,"evokes":12492,"uncanny":12493,"aj":12494,"dup":12495,"nish":12496,"ischer":12497,"toe":12498,"escal":12499,"befriend":12500,"mole":12501,"amnes":12502,"wipe":12503,"dexter":12504,"gow":12505,"soo":12506,"ceiling":12507,"maure":12508,"compris":12509,"upstairs":12510,"preminger":12511,"fulfilling":12512,"duh":12513,"tai":12514,"carla":12515,"pathetically":12516,"napo":12517,"lubits":12518,"bbed":12519,"slower":12520,"juice":12521,"juana":12522,"retreat":12523,"risks":12524,"transitions":12525,"psychologist":12526,"ostensibly":12527,"executives":12528,"bothers":12529,"criticized":12530,"systems":12531,"spoofs":12532,"handedly":12533,"tolerate":12534,"cheerful":12535,"marketed":12536,"electricity":12537,"drowned":12538,"reluctantly":12539,"exclusively":12540,"naschy":12541,"congratul":12542,"sgt":12543,"phase":12544,"ghastly":12545,"depardieu":12546,"37":12547,"bred":12548,"ugu":12549,"infuri":12550,"espion":12551,"forgets":12552,"outland":12553,"popped":12554,"manship":12555,"usage":12556,"consequence":12557,"ounder":12558,"overused":12559,"overtones":12560,"realises":12561,"funky":12562,"marathon":12563,"desk":12564,"rena":12565,"ensed":12566,"190":12567,"carlo":12568,"addin":12569,"blob":12570,".\")":12571,"russo":12572,"portman":12573,"willy":12574,"philadel":12575,"sensibilities":12576,"semblance":12577,"1953":12578,"chucky":12579,"conceiv":12580,"shelves":12581,"custody":12582,"clouds":12583,"skeptical":12584,"crosby":12585,"lubitsch":12586,"espionage":12587,"98":12588,"?\",":12589,"wic":12590,"tories":12591,"alicia":12592,"arse":12593,"stance":12594,"brim":12595,"abundance":12596,"rivers":12597,"trim":12598,"prologue":12599,"inton":12600,"ffer":12601,"surpassed":12602,"subtitled":12603,"excels":12604,"denied":12605,"housekeeper":12606,"archae":12607,"controls":12608,"collar":12609,"cynthia":12610,"pursuing":12611,"robocop":12612,"adequately":12613,"responds":12614,"tools":12615,"leatherface":12616,"butchered":12617,"snoopy":12618,"flamboy":12619,"confederate":12620,"buffo":12621,"turmoil":12622,"vag":12623,"lohan":12624,"feud":12625,"necks":12626,"ids":12627,"shiny":12628,"umes":12629,"disgr":12630,"parado":12631,"teddy":12632,"lightly":12633,"invite":12634,"happenings":12635,"coup":12636,"calig":12637,"patrol":12638,"rico":12639,"1937":12640,"streak":12641,"falcon":12642,"skipped":12643,"association":12644,"dusty":12645,"rabid":12646,"nicolas":12647,"engineer":12648,"papers":12649,"breathe":12650,"cigarettes":12651,"zealand":12652,"infinitely":12653,"schwarzenegger":12654,"infiltr":12655,"55":12656,"dna":12657,"diction":12658,"knights":12659,"lick":12660,"waking":12661,"thesp":12662,"reception":12663,"edges":12664,"bri":12665,"brody":12666,"vio":12667,"unappealing":12668,"filip":12669,"digress":12670,"uled":12671,"frat":12672,"frail":12673,"gras":12674,"firth":12675,"intersper":12676,"marian":12677,"marlene":12678,"turtle":12679,"steaming":12680,"longed":12681,"corre":12682,"forties":12683,"scriptwriter":12684,"solving":12685,"legally":12686,"magnum":12687,"promotion":12688,"ripper":12689,"lords":12690,"tara":12691,"culpr":12692,"nuances":12693,"crowded":12694,"graveyard":12695,"ambitions":12696,"abraham":12697,"hinted":12698,"morton":12699,"caroline":12700,"pitched":12701,"salvage":12702,"determine":12703,"obstacles":12704,"imprisoned":12705,"insomnia":12706,"gavin":12707,"paragraph":12708,"caesar":12709,"caribbean":12710,"paradox":12711,"64":12712,"gins":12713,"gently":12714,"kits":12715,"pest":12716,"zap":12717,"rewind":12718,"reserv":12719,"atable":12720,"alison":12721,"beery":12722,"moe":12723,"ented":12724,"hector":12725,"roach":12726,"file":12727,"diver":12728,"dixon":12729,"usal":12730,"ustinov":12731,"coal":12732,"spade":12733,"bettie":12734,"margin":12735,"taut":12736,"carr":12737,"objection":12738,"relates":12739,"kindly":12740,"followers":12741,"distaste":12742,"decency":12743,"camping":12744,"networks":12745,"gays":12746,"necessity":12747,"flashing":12748,"lena":12749,"splitting":12750,"1958":12751,"competing":12752,"greece":12753,"crashed":12754,"qualifies":12755,"thirteen":12756,"sacred":12757,"conflicted":12758,"representing":12759,"protective":12760,"unfolding":12761,"supplies":12762,"borderline":12763,"distinctly":12764,"ensue":12765,"diamonds":12766,"stirring":12767,"censorship":12768,"monotonous":12769,"philadelphia":12770,"aamir":12771,"csi":12772,"kol":12773,"repair":12774,"toll":12775,"uncredited":12776,"abu":12777,"diving":12778,"herman":12779,"shatter":12780,"werewolves":12781,"vessel":12782,"colman":12783,"wald":12784,"mori":12785,"lucil":12786,"pub":12787,"balloon":12788,"delic":12789,"sensibility":12790,"1964":12791,"1949":12792,"1951":12793,"depictions":12794,"remainder":12795,"spectrum":12796,"hayworth":12797,"ruled":12798,"emphasize":12799,"sinks":12800,"relaxed":12801,"compassionate":12802,"improvis":12803,"neeson":12804,"pronoun":12805,"auteur":12806,"neutral":12807,"bikini":12808,"mulder":12809,"platoon":12810,"maureen":12811,"anni":12812,"eningly":12813,"toby":12814,"ouch":12815,"escort":12816,"almighty":12817,"arise":12818,"elaine":12819,"suz":12820,"peggy":12821,"scape":12822,"shepard":12823,"awry":12824,"marple":12825,"),\"":12826,"mises":12827,"atten":12828,"kinder":12829,"pathis":12830,"slash":12831,"michel":12832,"bloodshed":12833,"milo":12834,"boxes":12835,"schu":12836,"radar":12837,"truthful":12838,"testing":12839,"magician":12840,"lengths":12841,"romania":12842,"transferred":12843,"applause":12844,"forgiveness":12845,"exploitative":12846,"rouge":12847,"inhabited":12848,"unnerving":12849,"keanu":12850,"distorted":12851,"stubborn":12852,"sfx":12853,"inven":12854,"anatom":12855,"renow":12856,"enzie":12857,"brandon":12858,"omon":12859,"imho":12860,"marital":12861,"partial":12862,"daytime":12863,"monstr":12864,"coron":12865,"originals":12866,"mustache":12867,"applies":12868,"lina":12869,"earliest":12870,"ridicul":12871,"lingering":12872,"stupidest":12873,"winners":12874,"oids":12875,"repeats":12876,"hitchhi":12877,"millenni":12878,"continuous":12879,"layer":12880,"galactica":12881,"bumps":12882,"evolent":12883,"switching":12884,"lizard":12885,"nutshell":12886,"buttons":12887,"eagerly":12888,"dudley":12889,"collapse":12890,"observations":12891,"symbols":12892,"graffit":12893,"athletic":12894,"lucille":12895,"abroad":12896,"bere":12897,"bats":12898,"gaz":12899,"kla":12900,"knee":12901,"splic":12902,"tint":12903,"yasha":12904,"renee":12905,"esther":12906,"brol":12907,"unnecessarily":12908,"mant":12909,"endured":12910,"epi":12911,"funded":12912,"marvin":12913,"reeve":12914,"monday":12915,"observed":12916,"mush":12917,"farrow":12918,"alog":12919,"understandably":12920,"hometown":12921,"sociopath":12922,"flock":12923,"leno":12924,"counterpart":12925,"kinnear":12926,"atrocities":12927,"significantly":12928,"protecting":12929,"suppor":12930,"giovan":12931,"nikki":12932,"detached":12933,"utilized":12934,"homicidal":12935,"retirement":12936,"impeccable":12937,"graffiti":12938,"++":12939,"eater":12940,"iko":12941,"swo":12942,"sights":12943,"envy":12944,"moses":12945,"whod":12946,"imposed":12947,"dez":12948,"goose":12949,"mah":12950,"managing":12951,"connie":12952,"timed":12953,"quake":12954,"coen":12955,"shud":12956,"grac":12957,"cling":12958,"lows":12959,"raunch":12960,"surrealism":12961,"underused":12962,"stepped":12963,"subconscious":12964,"messing":12965,"casually":12966,"publisher":12967,"grizz":12968,"adaption":12969,"darcy":12970,"mutants":12971,"sync":12972,"plausibility":12973,"targeted":12974,"bakshi":12975,"cousins":12976,"slaughtered":12977,"allegedly":12978,"traumat":12979,"laboratory":12980,"rampant":12981,"distinguish":12982,"enchanted":12983,"________":12984,"goddess":12985,"ritchie":12986,"dangers":12987,"mously":12988,"padding":12989,"rans":12990,"wally":12991,"stacy":12992,"cht":12993,"lified":12994,"decept":12995,"negot":12996,"nearest":12997,"perplex":12998,"conway":12999,"shun":13000,"prospect":13001,"charity":13002,"springs":13003,"dismissed":13004,"ppel":13005,"turtles":13006,"underdog":13007,"bitchy":13008,"ksen":13009,"capsule":13010,"harper":13011,"atively":13012,"implies":13013,"awfulness":13014,"grounded":13015,"periods":13016,"peterson":13017,"loner":13018,"hairy":13019,"kahn":13020,"ricci":13021,"bombed":13022,"lambs":13023,"threats":13024,"occurring":13025,"assistance":13026,"flew":13027,"admirably":13028,"puzzles":13029,"employment":13030,"outlandish":13031,"millennium":13032,"tch":13033,"zell":13034,"chimp":13035,"diag":13036,"sock":13037,"crust":13038,"dual":13039,"steele":13040,"obscene":13041,"closes":13042,"reasoning":13043,"harlow":13044,"pulse":13045,"sammy":13046,"cherry":13047,"punished":13048,"serials":13049,"lovingly":13050,"cowboys":13051,"bourgeo":13052,"electronic":13053,"mocku":13054,"crushed":13055,"blanche":13056,"ranging":13057,"plagued":13058,"cutes":13059,"lure":13060,"reform":13061,"roland":13062,"rosal":13063,"deception":13064,"oder":13065,"uptight":13066,"prehistoric":13067,"indes":13068,"derived":13069,"guerr":13070,"wry":13071,"famed":13072,"scripting":13073,"spectives":13074,"casper":13075,"ohan":13076,"bikers":13077,"supportive":13078,"cheaper":13079,"wheels":13080,"signature":13081,"bait":13082,"kathr":13083,"1943":13084,"1935":13085,"fashions":13086,"bosses":13087,"correctness":13088,"witchcraft":13089,"insanely":13090,"seduction":13091,"crumb":13092,"restraint":13093,"kingsley":13094,"drowning":13095,"coyote":13096,"paulie":13097,"henchman":13098,"condemned":13099,"awakening":13100,"cynicism":13101,",...":13102,"cly":13103,"iator":13104,"kam":13105,"owe":13106,"pine":13107,"vu":13108,"arming":13109,"lize":13110,"diale":13111,"scattered":13112,"perspectives":13113,"clunky":13114,"bla":13115,"flour":13116,"azte":13117,"ashton":13118,"needing":13119,"denial":13120,"christy":13121,"captive":13122,"creeps":13123,"darwin":13124,"traditions":13125,"explanations":13126,"manipulated":13127,"evolved":13128,"schemes":13129,"rebellion":13130,"mockery":13131,"preaching":13132,"idealistic":13133,"borrows":13134,"coincidences":13135,"misogyn":13136,"stefan":13137,"36":13138,"ein":13139,"mali":13140,"yards":13141,"reunited":13142,"esa":13143,"uncover":13144,"convic":13145,"timer":13146,"theirs":13147,"disappearing":13148,"willingly":13149,"wrath":13150,"angie":13151,"venus":13152,"warfare":13153,"redgrave":13154,"iah":13155,"gersh":13156,"landmark":13157,"missile":13158,"superflu":13159,"inclined":13160,"passive":13161,"largest":13162,"locust":13163,"willem":13164,"accidental":13165,"europeans":13166,"zoom":13167,"flipping":13168,"artistically":13169,"snowman":13170,"management":13171,"spelled":13172,"shuttle":13173,"collecting":13174,"arrogance":13175,"sparse":13176,"hypocris":13177,"knack":13178,"efficient":13179,"encouraged":13180,"chamberlain":13181,"electro":13182,"lupino":13183,"labeled":13184,"anxiety":13185,"diabolical":13186,"visceral":13187,"\"'":13188,"cena":13189,"kare":13190,"nak":13191,"tug":13192,"yarn":13193,"armor":13194,"braw":13195,"vigor":13196,"adder":13197,"vering":13198,"ayed":13199,"wight":13200,"detro":13201,"irwin":13202,"peep":13203,"mache":13204,"eller":13205,"coburn":13206,"berger":13207,"lovecraft":13208,"mona":13209,"subt":13210,"hardened":13211,"kindness":13212,"compound":13213,"cuff":13214,"moran":13215,"commendable":13216,"lurid":13217,"bench":13218,"talkie":13219,"fascist":13220,"revolving":13221,"conception":13222,"tibet":13223,"defending":13224,"grady":13225,"terminal":13226,"mobsters":13227,"crawling":13228,"transforms":13229,"wrestler":13230,"instrument":13231,"analyze":13232,"pesci":13233,"bacall":13234,"censored":13235,"squeeze":13236,"nikita":13237,"clayton":13238,"nuns":13239,"predecessors":13240,"hypnotic":13241,"kristoff":13242,"gulliver":13243,"varying":13244,"tomatoes":13245,"enforcement":13246,"meadow":13247,"moustache":13248,"insignificant":13249,"blaxploitation":13250,"diplom":13251,"detroit":13252,"dul":13253,"data":13254,"fud":13255,"mame":13256,"tina":13257,"brag":13258,"semin":13259,"moth":13260,"loe":13261,"wiped":13262,"rosen":13263,"meh":13264,"weaver":13265,"byr":13266,"cobra":13267,"canyon":13268,"isty":13269,"otta":13270,"tribes":13271,"borne":13272,"medit":13273,"blackma":13274,"lawn":13275,"skating":13276,"videotape":13277,"developments":13278,"summon":13279,"sissy":13280,"footsteps":13281,"milestone":13282,"misty":13283,"grandpa":13284,"imagining":13285,"shameful":13286,"ghostly":13287,"tested":13288,"1952":13289,"rescu":13290,"?!?":13291,"kidnaps":13292,"celebrate":13293,"domino":13294,"synthes":13295,"participants":13296,"mimic":13297,"clarity":13298,"resource":13299,"adulter":13300,"retrieve":13301,"demeanor":13302,"73":13303,"dc":13304,"gould":13305,"oak":13306,"pand":13307,"slot":13308,"uza":13309,"zar":13310,"reid":13311,"asset":13312,"arbit":13313,"arnie":13314,"noting":13315,"feather":13316,"exhilar":13317,"enders":13318,"indict":13319,"spiders":13320,"gud":13321,"overwrought":13322,"epito":13323,"assert":13324,"backwoods":13325,"saxon":13326,"nings":13327,"beforehand":13328,"borough":13329,"pah":13330,"brows":13331,"transvest":13332,"scarred":13333,"favourites":13334,"nineties":13335,"pregnancy":13336,"honorable":13337,"pornographic":13338,"outrageously":13339,"sophistication":13340,"bicy":13341,"monologues":13342,"induced":13343,"allegory":13344,"eliminated":13345,"temptation":13346,"chandler":13347,"dopey":13348,"blazing":13349,"articulate":13350,"penetr":13351,")\"":13352,"gator":13353,"ologist":13354,"trench":13355,"vd":13356,"stakes":13357,"brits":13358,"liza":13359,"ioni":13360,"robes":13361,"nev":13362,"shank":13363,"woke":13364,"funds":13365,"yourselves":13366,"misplaced":13367,"appet":13368,"relating":13369,"delta":13370,"weirdness":13371,"avenger":13372,"tropical":13373,"lific":13374,"goofs":13375,"amoral":13376,"cheerleader":13377,"illustrate":13378,"fleeting":13379,"revival":13380,"kilmer":13381,"brigitte":13382,":-)":13383,"frogs":13384,"bimbo":13385,"stylistic":13386,"marvellous":13387,"bourgeois":13388,"-\"":13389,"aish":13390,"lton":13391,"vre":13392,"reilly":13393,"ongoing":13394,"aria":13395,"haines":13396,"sooooo":13397,"neon":13398,"boats":13399,"granger":13400,"spared":13401,"disp":13402,"blends":13403,"wherein":13404,"renal":13405,"geno":13406,"carriage":13407,"glit":13408,"farrah":13409,"visconti":13410,"colomb":13411,"velt":13412,"pauses":13413,"harvest":13414,"fanning":13415,"breakthrough":13416,"drool":13417,"treating":13418,"stalked":13419,"amateurs":13420,"***<":13421,"epers":13422,"comfortably":13423,"jama":13424,"reckless":13425,"skipping":13426,"tango":13427,"maintaining":13428,"springer":13429,"december":13430,"mechanic":13431,"accompanying":13432,"ponyo":13433,"adventurous":13434,"stadium":13435,"bom":13436,"gail":13437,"kk":13438,"kut":13439,"pond":13440,"raft":13441,"incts":13442,"infest":13443,"retelling":13444,"enid":13445,"alma":13446,"amber":13447,"combs":13448,"constrain":13449,"agnes":13450,"weller":13451,"inks":13452,"dispar":13453,"madele":13454,"shoved":13455,"rails":13456,"oldman":13457,"somethings":13458,"downtown":13459,"worldwide":13460,"jeep":13461,"\",'":13462,"humane":13463,"mik":13464,"lumet":13465,"animators":13466,"rub":13467,"defining":13468,"vanished":13469,"limbs":13470,"scarce":13471,"dummy":13472,"instincts":13473,"watered":13474,"zzzz":13475,"randall":13476,"cocky":13477,"1948":13478,"dedication":13479,"sherman":13480,"trusted":13481,"deville":13482,"pipe":13483,"thirst":13484,"deservedly":13485,"miniature":13486,"coherence":13487,"gifts":13488,"links":13489,"wrecked":13490,"declared":13491,"wrestle":13492,"premier":13493,"mythical":13494,"launched":13495,"vulnerability":13496,"modesty":13497,"insecure":13498,"oxy":13499,"luxury":13500,"====":13501,"yells":13502,"spawned":13503,"twenties":13504,"miraculously":13505,"mercenary":13506,"renaissance":13507,"monstrous":13508,"dudes":13509,"koff":13510,"rho":13511,"sassy":13512,"zhang":13513,"tobe":13514,"leung":13515,"fork":13516,"roose":13517,"outlook":13518,"gosling":13519,"weis":13520,"concrete":13521,"discre":13522,"thematic":13523,"enses":13524,"surrender":13525,"trips":13526,"glamour":13527,"evelyn":13528,"bloke":13529,"fiennes":13530,"animator":13531,"elementary":13532,"elected":13533,"darkly":13534,"pains":13535,"sentenced":13536,"freely":13537,"snaps":13538,"battlest":13539,"owl":13540,"penned":13541,"hunger":13542,"gasp":13543,"civilized":13544,"tourists":13545,"discussions":13546,"ethical":13547,"qualified":13548,"bradley":13549,"principles":13550,"shifting":13551,"1920s":13552,"collaboration":13553,"recruit":13554,"faye":13555,"bauer":13556,"evocative":13557,"convicts":13558,"roosevelt":13559,"\").<":13560,"97":13561,"dice":13562,"lilli":13563,"rehab":13564,"replacing":13565,"itage":13566,"leis":13567,"icons":13568,"deformed":13569,"outset":13570,"usingly":13571,"extern":13572,"raving":13573,"phic":13574,"correspond":13575,"cloth":13576,"cursor":13577,"earp":13578,"riders":13579,"pickford":13580,"kenny":13581,"dreamed":13582,"palmer":13583,"latino":13584,"requis":13585,"awarded":13586,"duties":13587,"achievements":13588,"farewell":13589,"fetish":13590,"tackle":13591,"functions":13592,"kurtz":13593,"colonial":13594,"brendan":13595,"genetic":13596,"tyrone":13597,"superfluous":13598,"madeleine":13599,"dab":13600,"dus":13601,"ebe":13602,"jod":13603,"rin":13604,"vader":13605,"zac":13606,"inci":13607,"incess":13608,"infat":13609,"relying":13610,"stares":13611,"omo":13612,"lions":13613,"forum":13614,"rode":13615,"debra":13616,"hawa":13617,"notions":13618,"noticing":13619,"quaint":13620,"saif":13621,"mondo":13622,"stom":13623,"waltz":13624,"bodyguard":13625,"frey":13626,"ventura":13627,"italians":13628,"mastered":13629,"villa":13630,"aims":13631,"botched":13632,"raping":13633,"baxter":13634,"lecture":13635,"gesture":13636,"babysit":13637,"deemed":13638,"continuously":13639,"dunn":13640,"hostel":13641,"scrut":13642,"endear":13643,"skillfully":13644,"exaggeration":13645,"addresses":13646,"praying":13647,"rugged":13648,"guinness":13649,"slumber":13650,"pixar":13651,"ambiance":13652,"woefully":13653,"henriksen":13654,"confirmed":13655,"quintessential":13656,"stricken":13657,"cavalry":13658,"interspersed":13659,"lones":13660,"sday":13661,"insuffer":13662,"ancing":13663,"recalls":13664,"tomei":13665,"seattle":13666,"beeth":13667,"noel":13668,"vienna":13669,"lov":13670,"uting":13671,"geons":13672,"suf":13673,"heres":13674,"trion":13675,"memo":13676,"justification":13677,"gooding":13678,"spel":13679,"clap":13680,"seren":13681,"giants":13682,"choir":13683,"casted":13684,"obser":13685,"nerds":13686,"entertainer":13687,"fiery":13688,"denis":13689,"morgue":13690,"lude":13691,"fairness":13692,"octop":13693,"benson":13694,"documents":13695,"eventful":13696,"joker":13697,"hoodlum":13698,"sanct":13699,"vengeful":13700,"sickness":13701,"thankful":13702,"williamson":13703,"bonds":13704,"hosts":13705,"lifts":13706,"hayward":13707,"boogey":13708,"blondell":13709,"naval":13710,"overwhelmed":13711,"billion":13712,"gusto":13713,"raiders":13714,"----------------":13715,"transcends":13716,"eisenstein":13717,"unleashed":13718,"sweetheart":13719,"kristofferson":13720,"-)":13721,"daft":13722,"loun":13723,"mation":13724,"zoo":13725,"atically":13726,"vion":13727,"imony":13728,"improv":13729,"gher":13730,"debor":13731,"moviegoers":13732,"hap":13733,"showcases":13734,"badness":13735,"taine":13736,"genes":13737,"genie":13738,"versatile":13739,"mastermind":13740,"greta":13741,"benign":13742,"diesel":13743,"lorre":13744,"aska":13745,"psychologically":13746,"rapes":13747,"dime":13748,"1963":13749,"1966":13750,"puns":13751,"stockwell":13752,"commando":13753,"krue":13754,"autobiography":13755,"chabrol":13756,"biological":13757,"bogus":13758,"manipulate":13759,"achieving":13760,"puzzling":13761,"iterate":13762,"abducted":13763,"contradict":13764,"outsider":13765,"fawce":13766,"heterosexual":13767,"conceivable":13768,"anniversary":13769,"hypocrisy":13770,"dane":13771,"gwen":13772,"hiring":13773,"ratt":13774,"tm":13775,"asive":13776,"assur":13777,"stif":13778,"aders":13779,"ligible":13780,"imple":13781,"unremarkable":13782,"keane":13783,"withstanding":13784,"rigid":13785,"output":13786,"dore":13787,"exual":13788,"convert":13789,"thereafter":13790,"prolific":13791,"canon":13792,"akbar":13793,"guer":13794,"overshadowed":13795,"dismay":13796,"interplay":13797,"plotted":13798,"download":13799,"starship":13800,"mindset":13801,"titude":13802,"placement":13803,"waist":13804,"drivers":13805,"sordid":13806,"predators":13807,"promo":13808,"policemen":13809,"dreamy":13810,"meticulous":13811,"jerker":13812,"jerky":13813,"investment":13814,"macl":13815,"1946":13816,"splash":13817,"drawings":13818,"domain":13819,"booze":13820,"gilmore":13821,"proudly":13822,"francois":13823,"beckins":13824,"maniacs":13825,"magazines":13826,"applau":13827,"cotton":13828,"pumpkin":13829,"transparent":13830,"kathryn":13831,"battlestar":13832,"400":13833,"gated":13834,"knees":13835,"recreate":13836,"aladdin":13837,"acc":13838,"amar":13839,"rooted":13840,"irresponsible":13841,"sob":13842,"allison":13843,"dower":13844,"histrion":13845,"manne":13846,"coin":13847,"indis":13848,"iston":13849,"monstro":13850,"!!)":13851,"steamy":13852,"woodstock":13853,"slang":13854,".....<":13855,"logists":13856,"ahan":13857,"sadie":13858,"nament":13859,"expressing":13860,"melville":13861,"communism":13862,"grips":13863,"crop":13864,"bonding":13865,"raine":13866,"spotted":13867,"judgement":13868,"dominate":13869,"leonardo":13870,"supports":13871,"nichols":13872,"puzzled":13873,"intimacy":13874,"pigs":13875,"scorpion":13876,"coleman":13877,"imitate":13878,"telly":13879,"humiliation":13880,"oblivion":13881,"butterfly":13882,"idiocy":13883,"jedi":13884,"travelling":13885,"schizophrenic":13886,"geoffrey":13887,"approximately":13888,"lonesome":13889,"deborah":13890,"fawcett":13891,"').":13892,"bale":13893,"ctory":13894,"rations":13895,"tits":13896,"yam":13897,"enact":13898,"leaps":13899,"ici":13900,"lian":13901,"unfinished":13902,"elmer":13903,"scree":13904,"plung":13905,"prevalent":13906,"disconnected":13907,"bergen":13908,"sonic":13909,"lla":13910,"interiors":13911,"flush":13912,"mining":13913,"phile":13914,"stargate":13915,"cleef":13916,"rows":13917,"007":13918,"climate":13919,"fallon":13920,"regis":13921,"godard":13922,"gundam":13923,"bloodthirsty":13924,"archer":13925,"witz":13926,"locke":13927,"episodic":13928,"expresses":13929,"deliverance":13930,"1965":13931,"threaten":13932,"redeemable":13933,"healing":13934,"grabbing":13935,"clowns":13936,"mathieu":13937,"peaks":13938,"hicks":13939,"consumed":13940,"scully":13941,"fabric":13942,"spontaneous":13943,"cohesive":13944,"penalty":13945,"temporarily":13946,"hawaii":13947,"93":13948,"aerial":13949,"avenge":13950,"galo":13951,"muck":13952,"pis":13953,"rapp":13954,"tensions":13955,"rept":13956,"itious":13957,"lev":13958,"omi":13959,"acclaim":13960,"nove":13961,"hoskins":13962,"ripe":13963,"hapha":13964,"geist":13965,"diaries":13966,"feisty":13967,"conni":13968,"goodfellas":13969,"watchers":13970,"prone":13971,"maris":13972,"savi":13973,"classified":13974,"defines":13975,"operate":13976,"annoyingly":13977,"judd":13978,"troupe":13979,"philia":13980,"macarthur":13981,"kinson":13982,"january":13983,"refreshingly":13984,"roddy":13985,"colourful":13986,"robotic":13987,"appalled":13988,"lava":13989,"shamelessly":13990,"lewton":13991,"inuyasha":13992,"vaudeville":13993,"mercifully":13994,"octopus":13995,"haphazard":13996,"airl":13997,"cale":13998,"dles":13999,"dav":14000,"email":14001,"silli":14002,"incomplete":14003,"rev":14004,"unlucky":14005,"heritage":14006,"timber":14007,"cobb":14008,"charlton":14009,"seller":14010,"donnie":14011,"baddie":14012,"draft":14013,"fincher":14014,"caro":14015,"stoic":14016,"courts":14017,"morric":14018,"nixon":14019,"earns":14020,"drift":14021,"identities":14022,"stepmother":14023,"owski":14024,"cruc":14025,"rapt":14026,"!!!!!!":14027,"melvin":14028,"revolting":14029,"darth":14030,"practices":14031,"seventh":14032,"janitor":14033,"ceremon":14034,"associates":14035,"admirer":14036,"antonioni":14037,"integrated":14038,"connecting":14039,"brisk":14040,"marijuana":14041,"resurrection":14042,"rhett":14043,"kinky":14044,"saints":14045,"desolate":14046,"39":14047,"5th":14048,"fades":14049,"gaw":14050,"norton":14051,"vlad":14052,"yd":14053,"inth":14054,"reaper":14055,"itals":14056,"ariel":14057,"adrenal":14058,"verne":14059,"liotta":14060,"ambush":14061,"wires":14062,"alluring":14063,"traces":14064,"usional":14065,"ellis":14066,"tepid":14067,"uproar":14068,"charmed":14069,"wness":14070,"foe":14071,"dismember":14072,"warped":14073,"barbra":14074,"council":14075,"pollo":14076,"denying":14077,"sla":14078,"fanatics":14079,"heartless":14080,"teamed":14081,"oddball":14082,"bai":14083,"cinct":14084,"islands":14085,"suggestive":14086,"extraordinarily":14087,"dependent":14088,"digit":14089,"automatic":14090,"column":14091,"fleming":14092,"rivalry":14093,"conveying":14094,"enormously":14095,"bartender":14096,"customs":14097,"crummy":14098,"adultery":14099,"lucio":14100,"fitzgerald":14101,"laughton":14102,"renowned":14103,"clyde":14104,"arbitr":14105,"requisite":14106,"hunky":14107,"mie":14108,"nip":14109,"rach":14110,"tut":14111,"vist":14112,"ilation":14113,"chong":14114,"vega":14115,"wie":14116,"haus":14117,"diversity":14118,"ulation":14119,"exposing":14120,"worries":14121,"premises":14122,"intends":14123,"carli":14124,"surpasses":14125,"chopra":14126,"rowlands":14127,"valerie":14128,"onda":14129,"queer":14130,"ggers":14131,"promoting":14132,"bigo":14133,"lara":14134,"kerr":14135,"richly":14136,"!\")":14137,"fluent":14138,"wilde":14139,"austrian":14140,"kara":14141,"thanksgiving":14142,"alexandra":14143,"expanded":14144,"18th":14145,"radioactive":14146,"synd":14147,"gardner":14148,"ratio":14149,"stumbling":14150,"spells":14151,"maintained":14152,"graduation":14153,"sacrificed":14154,"revive":14155,"opponents":14156,"exhausted":14157,"imperial":14158,"procedure":14159,"claudius":14160,"administration":14161,"predicament":14162,"cancelled":14163,"epitome":14164,";)":14165,"dwight":14166,"fain":14167,"gillian":14168,"lug":14169,"wanda":14170,"zip":14171,"reneg":14172,"itary":14173,"lef":14174,"secl":14175,"nosis":14176,"loch":14177,"entity":14178,"uninspiring":14179,"poop":14180,"aptly":14181,"worms":14182,"grinch":14183,"josie":14184,"ptuous":14185,"playwright":14186,"marisa":14187,"geni":14188,"stills":14189,"stopp":14190,"lightweight":14191,"meanings":14192,"denise":14193,"ploy":14194,"violently":14195,"undress":14196,"dogma":14197,"transplant":14198,"volumes":14199,"earthquake":14200,"nette":14201,"consisting":14202,"dreadfully":14203,"employer":14204,"accomplishment":14205,"flex":14206,"seduced":14207,"sirk":14208,"cathy":14209,"integral":14210,"yugo":14211,"knightley":14212,"scoring":14213,"indicates":14214,"opponent":14215,"enlighten":14216,"permanently":14217,
[...]
